{
  "vocab_size": 16000,
  "vocab": {
    "<pad>": 0,
    "<unk>": 1,
    "<bos>": 2,
    "<eos>": 3,
    " ": 4,
    "!": 5,
    "\"": 6,
    "#": 7,
    "$": 8,
    "%": 9,
    "&": 10,
    "'": 11,
    "(": 12,
    ")": 13,
    "*": 14,
    "+": 15,
    ",": 16,
    "-": 17,
    ".": 18,
    "/": 19,
    "0": 20,
    "1": 21,
    "2": 22,
    "3": 23,
    "4": 24,
    "5": 25,
    "6": 26,
    "7": 27,
    "8": 28,
    "9": 29,
    ":": 30,
    ";": 31,
    "<": 32,
    "</w>": 33,
    "=": 34,
    ">": 35,
    "?": 36,
    "@": 37,
    "A": 38,
    "B": 39,
    "C": 40,
    "D": 41,
    "E": 42,
    "F": 43,
    "G": 44,
    "H": 45,
    "I": 46,
    "J": 47,
    "K": 48,
    "L": 49,
    "M": 50,
    "N": 51,
    "O": 52,
    "P": 53,
    "Q": 54,
    "R": 55,
    "S": 56,
    "T": 57,
    "U": 58,
    "V": 59,
    "W": 60,
    "X": 61,
    "Y": 62,
    "Z": 63,
    "[": 64,
    "\\": 65,
    "]": 66,
    "^": 67,
    "`": 68,
    "a": 69,
    "b": 70,
    "c": 71,
    "d": 72,
    "e": 73,
    "f": 74,
    "g": 75,
    "h": 76,
    "i": 77,
    "j": 78,
    "k": 79,
    "l": 80,
    "m": 81,
    "n": 82,
    "o": 83,
    "p": 84,
    "q": 85,
    "r": 86,
    "s": 87,
    "t": 88,
    "u": 89,
    "v": 90,
    "w": 91,
    "x": 92,
    "y": 93,
    "z": 94,
    "{": 95,
    "|": 96,
    "}": 97,
    "~": 98,
    "": 99,
    "": 100,
    "": 101,
    "¡": 102,
    "¢": 103,
    "£": 104,
    "¥": 105,
    "§": 106,
    "«": 107,
    "°": 108,
    "±": 109,
    "´": 110,
    "·": 111,
    "»": 112,
    "¿": 113,
    "×": 114,
    "˚": 115,
    "̂": 116,
    "̃": 117,
    "̆": 118,
    "̍": 119,
    "̥": 120,
    "̩": 121,
    "̯": 122,
    "͍": 123,
    "͡": 124,
    "֤": 125,
    "֫": 126,
    "ְ": 127,
    "ֱ": 128,
    "ֲ": 129,
    "ֳ": 130,
    "ִ": 131,
    "ֵ": 132,
    "ֶ": 133,
    "ַ": 134,
    "ָ": 135,
    "ֹ": 136,
    "ֻ": 137,
    "ּ": 138,
    "ׁ": 139,
    "ׂ": 140,
    "ٰ": 141,
    "ܲ": 142,
    "ܵ": 143,
    "ܼ": 144,
    "݂": 145,
    "ं": 146,
    "़": 147,
    "ा": 148,
    "ि": 149,
    "ी": 150,
    "ु": 151,
    "ू": 152,
    "े": 153,
    "ै": 154,
    "ॉ": 155,
    "ो": 156,
    "ौ": 157,
    "्": 158,
    "ਾ": 159,
    "ੁ": 160,
    "ੱ": 161,
    "ா": 162,
    "ி": 163,
    "ீ": 164,
    "ு": 165,
    "ூ": 166,
    "ே": 167,
    "்": 168,
    "ั": 169,
    "ิ": 170,
    "ี": 171,
    "ึ": 172,
    "ื": 173,
    "ุ": 174,
    "็": 175,
    "่": 176,
    "้": 177,
    "๊": 178,
    "์": 179,
    "჻": 180,
    "​": 181,
    "‌": 182,
    "‍": 183,
    "‐": 184,
    "‑": 185,
    "–": 186,
    "—": 187,
    "―": 188,
    "‘": 189,
    "’": 190,
    "“": 191,
    "”": 192,
    "„": 193,
    "†": 194,
    "‡": 195,
    "•": 196,
    "…": 197,
    "′": 198,
    "″": 199,
    "⁄": 200,
    "₣": 201,
    "₤": 202,
    "₫": 203,
    "€": 204,
    "₱": 205,
    "₹": 206,
    "№": 207,
    "→": 208,
    "∈": 209,
    "∉": 210,
    "−": 211,
    "∗": 212,
    "√": 213,
    "∝": 214,
    "∞": 215,
    "≈": 216,
    "≠": 217,
    "≤": 218,
    "≥": 219,
    "≪": 220,
    "⊕": 221,
    "⊙": 222,
    "⋅": 223,
    "☉": 224,
    "☫": 225,
    "♀": 226,
    "♠": 227,
    "♥": 228,
    "♭": 229,
    "♯": 230,
    "⚳": 231,
    "、": 232,
    "。": 233,
    "〈": 234,
    "〉": 235,
    "「": 236,
    "」": 237,
    "『": 238,
    "』": 239,
    "〒": 240,
    "〜": 241,
    "・": 242,
    "﻿": 243,
    "）": 244,
    "／": 245,
    "～": 246,
    "�": 247,
    "e</w>": 248,
    " t": 249,
    "s</w>": 250,
    "d</w>": 251,
    " a": 252,
    "n</w>": 253,
    " th": 254,
    "er": 255,
    "t</w>": 256,
    " the</w>": 257,
    "in": 258,
    " o": 259,
    ",</w>": 260,
    " ,</w>": 261,
    "y</w>": 262,
    "ed</w>": 263,
    " s": 264,
    " w": 265,
    ".</w>": 266,
    "or": 267,
    " .</w>": 268,
    " i": 269,
    "o</w>": 270,
    " c": 271,
    "ar": 272,
    "nd</w>": 273,
    " f": 274,
    "re": 275,
    "f</w>": 276,
    " b": 277,
    "at": 278,
    "er</w>": 279,
    "al": 280,
    "g</w>": 281,
    " of</w>": 282,
    "en": 283,
    " h": 284,
    " p": 285,
    "it": 286,
    "h</w>": 287,
    " and</w>": 288,
    "on": 289,
    "ing</w>": 290,
    "an": 291,
    "ic": 292,
    "ro": 293,
    " m": 294,
    " d": 295,
    " to</w>": 296,
    "es</w>": 297,
    " in</w>": 298,
    "on</w>": 299,
    "ou": 300,
    " a</w>": 301,
    "is": 302,
    "m</w>": 303,
    "el": 304,
    "il": 305,
    " l": 306,
    " T": 307,
    " re": 308,
    "as</w>": 309,
    "es": 310,
    "\"</w>": 311,
    " S": 312,
    " \"</w>": 313,
    " 1": 314,
    "al</w>": 315,
    " A": 316,
    "ion</w>": 317,
    " @": 318,
    "@</w>": 319,
    " n": 320,
    " C": 321,
    "as": 322,
    "ur": 323,
    "ec": 324,
    "a</w>": 325,
    "om": 326,
    " was</w>": 327,
    " e": 328,
    "ac": 329,
    "or</w>": 330,
    "ir": 331,
    " M": 332,
    "en</w>": 333,
    "he</w>": 334,
    "ol": 335,
    "am": 336,
    "an</w>": 337,
    " in": 338,
    "'</w>": 339,
    " '</w>": 340,
    " g": 341,
    " B": 342,
    "ly</w>": 343,
    "at</w>": 344,
    " @-": 345,
    " @-@</w>": 346,
    "iv": 347,
    "ts</w>": 348,
    "ow": 349,
    "is</w>": 350,
    "us": 351,
    "ig": 352,
    " wh": 353,
    " I": 354,
    "k</w>": 355,
    " H": 356,
    "l</w>": 357,
    " st": 358,
    "un": 359,
    "et": 360,
    "os": 361,
    " 2": 362,
    " wit": 363,
    " that</w>": 364,
    "em": 365,
    " The</w>": 366,
    "0</w>": 367,
    " on</w>": 368,
    " as</w>": 369,
    " P": 370,
    " for</w>": 371,
    "th": 372,
    "id": 373,
    "ra": 374,
    "ent</w>": 375,
    "le</w>": 376,
    " with</w>": 377,
    " R": 378,
    "im": 379,
    " D": 380,
    " by</w>": 381,
    "ion": 382,
    " con": 383,
    " al": 384,
    "ent": 385,
    "ere</w>": 386,
    " W": 387,
    " )": 388,
    " )</w>": 389,
    "(</w>": 390,
    " (</w>": 391,
    " F": 392,
    " G": 393,
    " N": 394,
    " is</w>": 395,
    "ers</w>": 396,
    "la": 397,
    " ha": 398,
    " L": 399,
    " 19": 400,
    "ul": 401,
    "ted</w>": 402,
    "uc": 403,
    "ev": 404,
    "p</w>": 405,
    "ad": 406,
    "ar</w>": 407,
    " J": 408,
    " v": 409,
    "ri": 410,
    "ce</w>": 411,
    " be": 412,
    "th</w>": 413,
    "ter</w>": 414,
    "rom</w>": 415,
    "ation</w>": 416,
    " pro": 417,
    "ag": 418,
    " his</w>": 419,
    "in</w>": 420,
    " E": 421,
    " from</w>": 422,
    " the": 423,
    "ic</w>": 424,
    " com": 425,
    " at</w>": 426,
    " ar": 427,
    "ov": 428,
    "ew": 429,
    " r": 430,
    "ch": 431,
    "ies</w>": 432,
    "pp": 433,
    " O": 434,
    "tr": 435,
    "ut</w>": 436,
    " were</w>": 437,
    "ay</w>": 438,
    "if": 439,
    "ut": 440,
    " 20": 441,
    "r</w>": 442,
    " ch": 443,
    "le": 444,
    "igh": 445,
    "oo": 446,
    "oc": 447,
    "ter": 448,
    "qu": 449,
    "um": 450,
    " it</w>": 451,
    "5</w>": 452,
    " sh": 453,
    "st</w>": 454,
    " ex": 455,
    " he</w>": 456,
    "ate</w>": 457,
    "ds</w>": 458,
    "op": 459,
    "ud": 460,
    " un": 461,
    "ated</w>": 462,
    "ep": 463,
    "ity</w>": 464,
    "ld</w>": 465,
    " an</w>": 466,
    "ab": 467,
    " on": 468,
    "ive</w>": 469,
    "ions</w>": 470,
    "ing": 471,
    "ir</w>": 472,
    "ame</w>": 473,
    "ea": 474,
    "ich</w>": 475,
    "i</w>": 476,
    " U": 477,
    "3</w>": 478,
    " had</w>": 479,
    "oun": 480,
    "ot": 481,
    "ot</w>": 482,
    "ug": 483,
    " K": 484,
    "ub": 485,
    "res": 486,
    "ed": 487,
    "ore</w>": 488,
    "et</w>": 489,
    "ve</w>": 490,
    "4</w>": 491,
    "ain": 492,
    " which</w>": 493,
    " k": 494,
    " Th": 495,
    "od": 496,
    "est</w>": 497,
    " sp": 498,
    "ff": 499,
    " ac": 500,
    "ak": 501,
    "6</w>": 502,
    "ber</w>": 503,
    "st": 504,
    "ally</w>": 505,
    "ge</w>": 506,
    " y": 507,
    "ap": 508,
    "ear": 509,
    "tion</w>": 510,
    "rit": 511,
    "8</w>": 512,
    "ist": 513,
    " be</w>": 514,
    "ther</w>": 515,
    "ong</w>": 516,
    "ers": 517,
    "7</w>": 518,
    "2</w>": 519,
    "ia</w>": 520,
    " an": 521,
    "el</w>": 522,
    "1</w>": 523,
    " rec": 524,
    "ill": 525,
    " fir": 526,
    " St": 527,
    "ary</w>": 528,
    "ew</w>": 529,
    " se": 530,
    " for": 531,
    " Ch": 532,
    "id</w>": 533,
    "ch</w>": 534,
    "ine</w>": 535,
    " are</w>": 536,
    "ran": 537,
    "ow</w>": 538,
    " In</w>": 539,
    " but</w>": 540,
    " comp": 541,
    " inc": 542,
    "9</w>": 543,
    " V": 544,
    " par": 545,
    "est": 546,
    " ro": 547,
    " not</w>": 548,
    " ;": 549,
    " ;</w>": 550,
    "00</w>": 551,
    "ding</w>": 552,
    " their</w>": 553,
    " int": 554,
    "ould</w>": 555,
    " first</w>": 556,
    "us</w>": 557,
    "ded</w>": 558,
    "fter</w>": 559,
    "og": 560,
    "il</w>": 561,
    "so</w>": 562,
    " res": 563,
    "ef": 564,
    " tw": 565,
    " en": 566,
    "ian</w>": 567,
    "all": 568,
    "ical</w>": 569,
    "um</w>": 570,
    "mp": 571,
    " 200": 572,
    " ab": 573,
    " its</w>": 574,
    "ard</w>": 575,
    " wor": 576,
    "ure</w>": 577,
    " also</w>": 578,
    "der</w>": 579,
    "ost</w>": 580,
    " or</w>": 581,
    " ad": 582,
    " us": 583,
    "our": 584,
    " cont": 585,
    "ial</w>": 586,
    "ast</w>": 587,
    "own</w>": 588,
    "ight</w>": 589,
    "ome</w>": 590,
    " one</w>": 591,
    "duc": 592,
    "ay": 593,
    "–</w>": 594,
    " –</w>": 595,
    "all</w>": 596,
    " pl": 597,
    "ue</w>": 598,
    " :": 599,
    " :</w>": 600,
    " have</w>": 601,
    "ting</w>": 602,
    "oug": 603,
    "ime</w>": 604,
    " @.": 605,
    " @.@</w>": 606,
    "ents</w>": 607,
    "ey</w>": 608,
    "ain</w>": 609,
    "av": 610,
    "ment</w>": 611,
    " her</w>": 612,
    "ess": 613,
    " ev": 614,
    "out</w>": 615,
    "ish</w>": 616,
    "ss": 617,
    " dis": 618,
    "The</w>": 619,
    "ack</w>": 620,
    "eg": 621,
    "ip": 622,
    "iz": 623,
    "ess</w>": 624,
    " two</w>": 625,
    " been</w>": 626,
    "ks</w>": 627,
    "up</w>": 628,
    "ence</w>": 629,
    " who</w>": 630,
    " or": 631,
    "ely</w>": 632,
    "oll": 633,
    " has</w>": 634,
    "for": 635,
    " cl": 636,
    " pla": 637,
    " ag": 638,
    " this</w>": 639,
    " bec": 640,
    "ib": 641,
    "age</w>": 642,
    "per": 643,
    "uring</w>": 644,
    " ov": 645,
    "ear</w>": 646,
    " comm": 647,
    " app": 648,
    " j": 649,
    "ional</w>": 650,
    "ile</w>": 651,
    "ater</w>": 652,
    " @,": 653,
    " @,@</w>": 654,
    "x</w>": 655,
    " He</w>": 656,
    " sc": 657,
    " des": 658,
    "ous</w>": 659,
    " at": 660,
    " ser": 661,
    " 3": 662,
    "lud": 663,
    "ish": 664,
    " In": 665,
    "im</w>": 666,
    "se</w>": 667,
    " per": 668,
    " they</w>": 669,
    "ant</w>": 670,
    "ered</w>": 671,
    "it</w>": 672,
    "ell</w>": 673,
    "ned</w>": 674,
    " cons": 675,
    "ice</w>": 676,
    " 18": 677,
    "eat": 678,
    " rep": 679,
    "eb": 680,
    "ember</w>": 681,
    " 201": 682,
    " Al": 683,
    "ance</w>": 684,
    "and": 685,
    " Un": 686,
    "ide</w>": 687,
    " pre": 688,
    " suc": 689,
    "ell": 690,
    "and</w>": 691,
    " su": 692,
    "ke</w>": 693,
    "ort</w>": 694,
    "her</w>": 695,
    "ory</w>": 696,
    "our</w>": 697,
    "ree</w>": 698,
    " after</w>": 699,
    " includ": 700,
    "een</w>": 701,
    "ations</w>": 702,
    " Y": 703,
    "ass": 704,
    "ty</w>": 705,
    " time</w>": 706,
    "any</w>": 707,
    " sec": 708,
    "land</w>": 709,
    "ite</w>": 710,
    "ill</w>": 711,
    "ace</w>": 712,
    " into</w>": 713,
    " att": 714,
    " Mar": 715,
    "w</w>": 716,
    "eral</w>": 717,
    " would</w>": 718,
    " other</w>": 719,
    " 1</w>": 720,
    "ked</w>": 721,
    "ited</w>": 722,
    " It</w>": 723,
    "ates</w>": 724,
    "roug": 725,
    "ese</w>": 726,
    "ased</w>": 727,
    "ade</w>": 728,
    "ip</w>": 729,
    " more</w>": 730,
    "ort": 731,
    "ied</w>": 732,
    "ist</w>": 733,
    " fin": 734,
    " play": 735,
    "ough</w>": 736,
    " inter": 737,
    "ition</w>": 738,
    "ans</w>": 739,
    "ings</w>": 740,
    "sh": 741,
    "rib": 742,
    " char": 743,
    "amp": 744,
    "les</w>": 745,
    "etw": 746,
    " Am": 747,
    "als</w>": 748,
    "oin": 749,
    " I</w>": 750,
    " bo": 751,
    "up": 752,
    "am</w>": 753,
    "able</w>": 754,
    "ant": 755,
    " tra": 756,
    "ob": 757,
    " 4": 758,
    "ct": 759,
    "ever</w>": 760,
    "ang": 761,
    " exp": 762,
    "ubl": 763,
    "ust</w>": 764,
    " 0": 765,
    " over</w>": 766,
    "ect": 767,
    " when</w>": 768,
    "res</w>": 769,
    " el": 770,
    "ric": 771,
    " ra": 772,
    " him</w>": 773,
    "ning</w>": 774,
    "erm": 775,
    " off": 776,
    " An": 777,
    " all</w>": 778,
    "S</w>": 779,
    "ach": 780,
    " 2</w>": 781,
    " game</w>": 782,
    "ond</w>": 783,
    "u</w>": 784,
    "und</w>": 785,
    "ase</w>": 786,
    " acc": 787,
    " pos": 788,
    " rem": 789,
    "ery</w>": 790,
    " pr": 791,
    "ren": 792,
    "ton</w>": 793,
    " sa": 794,
    " dec": 795,
    "ong": 796,
    "one</w>": 797,
    "aus": 798,
    " A</w>": 799,
    "ces</w>": 800,
    " gro": 801,
    "ad</w>": 802,
    " only</w>": 803,
    "etween</w>": 804,
    "vi": 805,
    "ens": 806,
    "iss": 807,
    " kn": 808,
    " during</w>": 809,
    "uil": 810,
    " cent": 811,
    "ose</w>": 812,
    "ee": 813,
    " ear": 814,
    " fl": 815,
    "ears</w>": 816,
    " up</w>": 817,
    " she</w>": 818,
    " pres": 819,
    " about</w>": 820,
    "A</w>": 821,
    " than</w>": 822,
    " between</w>": 823,
    " car": 824,
    "ach</w>": 825,
    "ason</w>": 826,
    " sev": 827,
    "ern": 828,
    "rop": 829,
    "ook</w>": 830,
    "king</w>": 831,
    "fer": 832,
    "ake</w>": 833,
    " imp": 834,
    "ead</w>": 835,
    "ors</w>": 836,
    " three</w>": 837,
    "eric": 838,
    " out</w>": 839,
    "form": 840,
    " produc": 841,
    " 5": 842,
    " later</w>": 843,
    " Wh": 844,
    "om</w>": 845,
    " throug": 846,
    " cre": 847,
    " 199": 848,
    " ret": 849,
    "ood</w>": 850,
    " qu": 851,
    " num": 852,
    " most</w>": 853,
    "act": 854,
    " Ar": 855,
    "ex": 856,
    "ire": 857,
    "ry</w>": 858,
    " 3</w>": 859,
    " rel": 860,
    "ollow": 861,
    " spec": 862,
    " beg": 863,
    " gen": 864,
    " Sh": 865,
    "ating</w>": 866,
    " while</w>": 867,
    " fil": 868,
    "oy": 869,
    " Americ": 870,
    " En": 871,
    "ished</w>": 872,
    " rele": 873,
    "ational</w>": 874,
    "oh": 875,
    "ie</w>": 876,
    "ived</w>": 877,
    " reg": 878,
    " le": 879,
    "way</w>": 880,
    " form": 881,
    " Com": 882,
    " made</w>": 883,
    " recor": 884,
    "att": 885,
    "ound</w>": 886,
    " sub": 887,
    "ool": 888,
    "ect</w>": 889,
    " new</w>": 890,
    " writ": 891,
    "In</w>": 892,
    "ement</w>": 893,
    "ph": 894,
    "ames</w>": 895,
    " ep": 896,
    " ass": 897,
    "op</w>": 898,
    "evel": 899,
    "eld</w>": 900,
    " mar": 901,
    "ily</w>": 902,
    " 000</w>": 903,
    " such</w>": 904,
    "ru": 905,
    " buil": 906,
    " season</w>": 907,
    "end": 908,
    " publ": 909,
    " Sp": 910,
    "ons</w>": 911,
    "cc": 912,
    " lar": 913,
    " year</w>": 914,
    "ics</w>": 915,
    "te</w>": 916,
    " alb": 917,
    " bef": 918,
    " where</w>": 919,
    " used</w>": 920,
    "sp": 921,
    " mus": 922,
    "ved</w>": 923,
    "ike</w>": 924,
    "son</w>": 925,
    " 5</w>": 926,
    " before</w>": 927,
    " nor": 928,
    "outh</w>": 929,
    "ision</w>": 930,
    " def": 931,
    " star": 932,
    " years</w>": 933,
    " loc": 934,
    "ign": 935,
    "wn</w>": 936,
    "old</w>": 937,
    " ind": 938,
    " mov": 939,
    "ected</w>": 940,
    "ern</w>": 941,
    "ode</w>": 942,
    " This</w>": 943,
    "C</w>": 944,
    "emp": 945,
    "/</w>": 946,
    " /</w>": 947,
    " epis": 948,
    " with": 949,
    " them</w>": 950,
    " mon": 951,
    "ff</w>": 952,
    "ire</w>": 953,
    " some</w>": 954,
    " Par": 955,
    "ul</w>": 956,
    " str": 957,
    "ced</w>": 958,
    " sur": 959,
    "owever</w>": 960,
    " supp": 961,
    "ays</w>": 962,
    " tr": 963,
    "ury</w>": 964,
    " op": 965,
    "ous": 966,
    "ert": 967,
    "ards</w>": 968,
    " bl": 969,
    " follow": 970,
    " being</w>": 971,
    " conc": 972,
    " sy": 973,
    " am": 974,
    "aj": 975,
    " me": 976,
    " Car": 977,
    " through</w>": 978,
    " then</w>": 979,
    "ult": 980,
    " call": 981,
    "ich": 982,
    " album</w>": 983,
    " song</w>": 984,
    " Brit": 985,
    " 4</w>": 986,
    "ainst</w>": 987,
    " ent": 988,
    " New</w>": 989,
    " coun": 990,
    " inv": 991,
    "ail": 992,
    "ress": 993,
    "ept": 994,
    " 6": 995,
    " col": 996,
    " second</w>": 997,
    " mat": 998,
    "yp": 999,
    " series</w>": 1000,
    "ised</w>": 1001,
    "let": 1002,
    " act": 1003,
    " min": 1004,
    " pol": 1005,
    " against</w>": 1006,
    " Nor": 1007,
    "io</w>": 1008,
    " number</w>": 1009,
    " there</w>": 1010,
    "ht</w>": 1011,
    "em</w>": 1012,
    " can</w>": 1013,
    "ale</w>": 1014,
    " well</w>": 1015,
    " United</w>": 1016,
    " became</w>": 1017,
    "ast": 1018,
    " 7": 1019,
    "ause</w>": 1020,
    " are": 1021,
    " Con": 1022,
    " both</w>": 1023,
    "ince</w>": 1024,
    " part": 1025,
    "round</w>": 1026,
    "enn": 1027,
    " no</w>": 1028,
    "ities</w>": 1029,
    "ustr": 1030,
    " pe": 1031,
    " including</w>": 1032,
    "ten</w>": 1033,
    "ower</w>": 1034,
    " desc": 1035,
    "un</w>": 1036,
    " dep": 1037,
    " sing": 1038,
    "ative</w>": 1039,
    "other</w>": 1040,
    "—</w>": 1041,
    "ass</w>": 1042,
    " Ind": 1043,
    " —</w>": 1044,
    "ign</w>": 1045,
    "ious</w>": 1046,
    "ict": 1047,
    "ise</w>": 1048,
    "I</w>": 1049,
    "eam</w>": 1050,
    " part</w>": 1051,
    "igin": 1052,
    " devel": 1053,
    "ual</w>": 1054,
    " episode</w>": 1055,
    "ures</w>": 1056,
    " Eng": 1057,
    "ath": 1058,
    " tran": 1059,
    " known</w>": 1060,
    " many</w>": 1061,
    "ife</w>": 1062,
    "ann": 1063,
    "emb": 1064,
    " 198": 1065,
    "ained</w>": 1066,
    "though</w>": 1067,
    " bro": 1068,
    "olog": 1069,
    " Joh": 1070,
    "re</w>": 1071,
    "dit": 1072,
    " sm": 1073,
    " four</w>": 1074,
    " cap": 1075,
    " Wor": 1076,
    "man</w>": 1077,
    " sch": 1078,
    "overn": 1079,
    "az": 1080,
    "led</w>": 1081,
    "truc": 1082,
    "ool</w>": 1083,
    "are</w>": 1084,
    " Z": 1085,
    "ack": 1086,
    "os</w>": 1087,
    " dire": 1088,
    "ular</w>": 1089,
    " 9": 1090,
    " 194": 1091,
    " stud": 1092,
    " could</w>": 1093,
    " film</w>": 1094,
    "ually</w>": 1095,
    " rece": 1096,
    "ized</w>": 1097,
    " under</w>": 1098,
    "red</w>": 1099,
    " gre": 1100,
    " contin": 1101,
    " dif": 1102,
    "od</w>": 1103,
    " ob": 1104,
    " 6</w>": 1105,
    " 8": 1106,
    "ving</w>": 1107,
    " est": 1108,
    " several</w>": 1109,
    "ired</w>": 1110,
    "fl": 1111,
    " win": 1112,
    " so</w>": 1113,
    " succ": 1114,
    " said</w>": 1115,
    "ying</w>": 1116,
    " did</w>": 1117,
    "igh</w>": 1118,
    " American</w>": 1119,
    " la": 1120,
    " origin": 1121,
    "elf</w>": 1122,
    " called</w>": 1123,
    "ward</w>": 1124,
    " develop": 1125,
    " Sc": 1126,
    "tern</w>": 1127,
    " high": 1128,
    " 10</w>": 1129,
    "eal": 1130,
    "erg": 1131,
    "ix</w>": 1132,
    "ard": 1133,
    " stor": 1134,
    " man": 1135,
    "ron": 1136,
    "til</w>": 1137,
    "ople</w>": 1138,
    "ued</w>": 1139,
    "its</w>": 1140,
    " perform": 1141,
    "ection</w>": 1142,
    " retur": 1143,
    "ane</w>": 1144,
    "ley</w>": 1145,
    " began</w>": 1146,
    " mill": 1147,
    "ust": 1148,
    " prov": 1149,
    "ork</w>": 1150,
    " On</w>": 1151,
    " disc": 1152,
    "ines</w>": 1153,
    "ros": 1154,
    " ph": 1155,
    " bel": 1156,
    "ute</w>": 1157,
    "ee</w>": 1158,
    "imes</w>": 1159,
    " feat": 1160,
    "iev": 1161,
    " </w>": 1162,
    "itt": 1163,
    "art": 1164,
    "ided</w>": 1165,
    " 197": 1166,
    "ou</w>": 1167,
    "ft</w>": 1168,
    " co": 1169,
    "ivers": 1170,
    "ands</w>": 1171,
    "ship</w>": 1172,
    " crit": 1173,
    "li": 1174,
    " work</w>": 1175,
    " early</w>": 1176,
    " team</w>": 1177,
    "ined</w>": 1178,
    "anc": 1179,
    "=</w>": 1180,
    " British</w>": 1181,
    " until</w>": 1182,
    "z</w>": 1183,
    " offic": 1184,
    " resp": 1185,
    " Gre": 1186,
    " 196": 1187,
    "une</w>": 1188,
    " eff": 1189,
    " describ": 1190,
    "ium</w>": 1191,
    " mil": 1192,
    " day</w>": 1193,
    "ean</w>": 1194,
    "oci": 1195,
    " met": 1196,
    " released</w>": 1197,
    "ists</w>": 1198,
    " these</w>": 1199,
    "ne</w>": 1200,
    "ific": 1201,
    "iver</w>": 1202,
    "ond": 1203,
    "ird</w>": 1204,
    " sim": 1205,
    "ult</w>": 1206,
    " pop": 1207,
    " found</w>": 1208,
    " same</w>": 1209,
    "ially</w>": 1210,
    "ur</w>": 1211,
    " adv": 1212,
    " all": 1213,
    "ert</w>": 1214,
    "yl": 1215,
    "ins</w>": 1216,
    "try</w>": 1217,
    " fam": 1218,
    "pr": 1219,
    " go": 1220,
    " Col": 1221,
    "my</w>": 1222,
    "ik": 1223,
    "amed</w>": 1224,
    " 8</w>": 1225,
    "ible</w>": 1226,
    " occ": 1227,
    " use</w>": 1228,
    " vi": 1229,
    "ended</w>": 1230,
    "ips</w>": 1231,
    " br": 1232,
    " end</w>": 1233,
    " people</w>": 1234,
    "ield</w>": 1235,
    " 7</w>": 1236,
    " poin": 1237,
    " After</w>": 1238,
    " fe": 1239,
    "osed</w>": 1240,
    " dr": 1241,
    " may</w>": 1242,
    " Bl": 1243,
    "irc": 1244,
    "ured</w>": 1245,
    " century</w>": 1246,
    " Cl": 1247,
    " oper": 1248,
    " av": 1249,
    "ick": 1250,
    "outh": 1251,
    " hist": 1252,
    " 17": 1253,
    " rev": 1254,
    " Sept": 1255,
    "ouse</w>": 1256,
    " govern": 1257,
    " like</w>": 1258,
    " 195": 1259,
    " States</w>": 1260,
    " pers": 1261,
    "ange</w>": 1262,
    " September</w>": 1263,
    " ins": 1264,
    "ove</w>": 1265,
    "act</w>": 1266,
    " charac": 1267,
    " because</w>": 1268,
    " trans": 1269,
    "inc": 1270,
    " out": 1271,
    " million</w>": 1272,
    "ather</w>": 1273,
    " World</w>": 1274,
    " each</w>": 1275,
    "aking</w>": 1276,
    "ys": 1277,
    " Aug": 1278,
    " city</w>": 1279,
    "erv": 1280,
    "ash": 1281,
    " around</w>": 1282,
    "ith</w>": 1283,
    "und": 1284,
    " mod": 1285,
    " im": 1286,
    "ened</w>": 1287,
    " dist": 1288,
    " consid": 1289,
    "ner</w>": 1290,
    "ix": 1291,
    " gra": 1292,
    "ie": 1293,
    " 191": 1294,
    "ented</w>": 1295,
    " complet": 1296,
    "igned</w>": 1297,
    " var": 1298,
    " conv": 1299,
    "ons": 1300,
    " She</w>": 1301,
    " sol": 1302,
    " 193": 1303,
    " Ju": 1304,
    " und": 1305,
    "els</w>": 1306,
    " km</w>": 1307,
    " ext": 1308,
    " Ad": 1309,
    " any</w>": 1310,
    " They</w>": 1311,
    " following</w>": 1312,
    " $": 1313,
    " $</w>": 1314,
    " took</w>": 1315,
    "ina</w>": 1316,
    " long</w>": 1317,
    " 0</w>": 1318,
    "aced</w>": 1319,
    " along</w>": 1320,
    " id": 1321,
    "ave</w>": 1322,
    " tur": 1323,
    "ently</w>": 1324,
    " ne": 1325,
    " back</w>": 1326,
    "eer</w>": 1327,
    " Fran": 1328,
    " five</w>": 1329,
    "esp": 1330,
    " =</w>": 1331,
    " wee": 1332,
    " pass": 1333,
    " 9</w>": 1334,
    " area</w>": 1335,
    " Le": 1336,
    " off</w>": 1337,
    " received</w>": 1338,
    " 20</w>": 1339,
    "b</w>": 1340,
    "ech": 1341,
    " Germ": 1342,
    "ects</w>": 1343,
    "uch</w>": 1344,
    " August</w>": 1345,
    " appear": 1346,
    " maj": 1347,
    " partic": 1348,
    "ism</w>": 1349,
    " state</w>": 1350,
    "eng": 1351,
    " May</w>": 1352,
    " Q": 1353,
    " However</w>": 1354,
    " music</w>": 1355,
    " vers": 1356,
    " ann": 1357,
    " Is": 1358,
    " John</w>": 1359,
    "oon</w>": 1360,
    "end</w>": 1361,
    " Austr": 1362,
    " %": 1363,
    " %</w>": 1364,
    " high</w>": 1365,
    "ored</w>": 1366,
    "ering</w>": 1367,
    "ress</w>": 1368,
    " Br": 1369,
    "ext</w>": 1370,
    " tri": 1371,
    "aw": 1372,
    "ives</w>": 1373,
    "ility</w>": 1374,
    "ants</w>": 1375,
    "ales</w>": 1376,
    "ock</w>": 1377,
    " Comm": 1378,
    "ett": 1379,
    " Oct": 1380,
    "ately</w>": 1381,
    " As</w>": 1382,
    " War</w>": 1383,
    " sl": 1384,
    "ms</w>": 1385,
    "ead": 1386,
    "ober</w>": 1387,
    " Nov": 1388,
    " prot": 1389,
    " Jan": 1390,
    " Can": 1391,
    " po": 1392,
    "iving</w>": 1393,
    "ves</w>": 1394,
    " gu": 1395,
    " October</w>": 1396,
    "ens</w>": 1397,
    "ful</w>": 1398,
    " June</w>": 1399,
    " inst": 1400,
    "orted</w>": 1401,
    " Coun": 1402,
    " large</w>": 1403,
    " Chr": 1404,
    " single</w>": 1405,
    " ]": 1406,
    " ]</w>": 1407,
    " up": 1408,
    "[</w>": 1409,
    "dition</w>": 1410,
    "ident</w>": 1411,
    " since</w>": 1412,
    " 12</w>": 1413,
    "eo</w>": 1414,
    "eft</w>": 1415,
    " Austral": 1416,
    "oted</w>": 1417,
    " syst": 1418,
    " [</w>": 1419,
    " contro": 1420,
    "ea</w>": 1421,
    " exc": 1422,
    "ording</w>": 1423,
    "uth": 1424,
    " do": 1425,
    " July</w>": 1426,
    "ross</w>": 1427,
    " art": 1428,
    "ugg": 1429,
    "omet": 1430,
    "ok": 1431,
    " med": 1432,
    "ively</w>": 1433,
    "ews</w>": 1434,
    " Dec": 1435,
    "ution</w>": 1436,
    "ians</w>": 1437,
    "ues</w>": 1438,
    " hel": 1439,
    "ets</w>": 1440,
    "ey": 1441,
    " lead": 1442,
    "ick</w>": 1443,
    " down</w>": 1444,
    "idge</w>": 1445,
    " will</w>": 1446,
    " incre": 1447,
    "gan": 1448,
    " det": 1449,
    "uary</w>": 1450,
    " played</w>": 1451,
    "ns</w>": 1452,
    "orp": 1453,
    "pril</w>": 1454,
    " show</w>": 1455,
    "ified</w>": 1456,
    " April</w>": 1457,
    " not": 1458,
    "raft</w>": 1459,
    "abl": 1460,
    " Mc": 1461,
    "ought</w>": 1462,
    " em": 1463,
    " left</w>": 1464,
    "D</w>": 1465,
    " described</w>": 1466,
    " Ph": 1467,
    "ural</w>": 1468,
    "ron</w>": 1469,
    " tit": 1470,
    "ically</w>": 1471,
    " what</w>": 1472,
    "rote</w>": 1473,
    " species</w>": 1474,
    "eath</w>": 1475,
    " set</w>": 1476,
    "ements</w>": 1477,
    " batt": 1478,
    " due</w>": 1479,
    " November</w>": 1480,
    " For": 1481,
    "..": 1482,
    " wrote</w>": 1483,
    " ter": 1484,
    " much</w>": 1485,
    " group</w>": 1486,
    " cr": 1487,
    "ches</w>": 1488,
    " another</w>": 1489,
    " if</w>": 1490,
    " bre": 1491,
    "ah": 1492,
    " U</w>": 1493,
    "eh": 1494,
    " 15</w>": 1495,
    " March</w>": 1496,
    " prom": 1497,
    " At</w>": 1498,
    "ains</w>": 1499,
    "ll": 1500,
    "ild": 1501,
    " based</w>": 1502,
    "orn": 1503,
    "ord": 1504,
    "ram": 1505,
    " Pr": 1506,
    " requ": 1507,
    " vis": 1508,
    " larg": 1509,
    " Man": 1510,
    " as": 1511,
    " north": 1512,
    " differ": 1513,
    "self</w>": 1514,
    " prog": 1515,
    " government</w>": 1516,
    " name</w>": 1517,
    " Har": 1518,
    "erc": 1519,
    " final</w>": 1520,
    " gener": 1521,
    " revi": 1522,
    "tern": 1523,
    "ague</w>": 1524,
    " place</w>": 1525,
    " January</w>": 1526,
    " Pro": 1527,
    " ..": 1528,
    " Fl": 1529,
    " appro": 1530,
    " war</w>": 1531,
    " prop": 1532,
    " life</w>": 1533,
    " m</w>": 1534,
    " now</w>": 1535,
    " sk": 1536,
    "ared</w>": 1537,
    "ub</w>": 1538,
    " York</w>": 1539,
    " Eu": 1540,
    " Bo": 1541,
    " M</w>": 1542,
    "ody</w>": 1543,
    " emp": 1544,
    " South</w>": 1545,
    " poss": 1546,
    "yc": 1547,
    " line</w>": 1548,
    " named</w>": 1549,
    "arly</w>": 1550,
    " December</w>": 1551,
    " included</w>": 1552,
    " character</w>": 1553,
    "ull</w>": 1554,
    "uns</w>": 1555,
    "ening</w>": 1556,
    " won</w>": 1557,
    " Min": 1558,
    "tly</w>": 1559,
    " ...</w>": 1560,
    " fun": 1561,
    "omin": 1562,
    " games</w>": 1563,
    " six</w>": 1564,
    " third</w>": 1565,
    "enc": 1566,
    " 11</w>": 1567,
    " home</w>": 1568,
    " Bro": 1569,
    "ation": 1570,
    " built</w>": 1571,
    " cla": 1572,
    "ier</w>": 1573,
    "ideo</w>": 1574,
    "ched</w>": 1575,
    " own</w>": 1576,
    " 18</w>": 1577,
    " Gu": 1578,
    " 30</w>": 1579,
    " previ": 1580,
    "iversity</w>": 1581,
    " popul": 1582,
    " Jap": 1583,
    " is": 1584,
    " attemp": 1585,
    " led</w>": 1586,
    " family</w>": 1587,
    " near</w>": 1588,
    "ana</w>": 1589,
    "ature</w>": 1590,
    " Ro": 1591,
    " just</w>": 1592,
    " North</w>": 1593,
    "ety</w>": 1594,
    "ogra": 1595,
    "uss": 1596,
    " small</w>": 1597,
    " Bar": 1598,
    " Mich": 1599,
    "orn</w>": 1600,
    " US</w>": 1601,
    "orts</w>": 1602,
    " although</w>": 1603,
    "ides</w>": 1604,
    " very</w>": 1605,
    "ital</w>": 1606,
    " establ": 1607,
    " construc": 1608,
    " Sch": 1609,
    " sign": 1610,
    "ience</w>": 1611,
    " within</w>": 1612,
    " record</w>": 1613,
    " tow": 1614,
    " proc": 1615,
    "rench</w>": 1616,
    " those</w>": 1617,
    "pped</w>": 1618,
    " dem": 1619,
    "ind</w>": 1620,
    "ems</w>": 1621,
    " system</w>": 1622,
    " memb": 1623,
    "ether</w>": 1624,
    "ject</w>": 1625,
    " original</w>": 1626,
    " main</w>": 1627,
    "acks</w>": 1628,
    " serv": 1629,
    "ously</w>": 1630,
    " make</w>": 1631,
    " eng": 1632,
    " 192": 1633,
    " pur": 1634,
    " iss": 1635,
    "tain</w>": 1636,
    "rip": 1637,
    " te": 1638,
    " Mon": 1639,
    " still</w>": 1640,
    " Europ": 1641,
    " last</w>": 1642,
    " play</w>": 1643,
    " lea": 1644,
    " typ": 1645,
    "umm": 1646,
    " fur": 1647,
    "ourn": 1648,
    " world</w>": 1649,
    "ached</w>": 1650,
    " tre": 1651,
    " opp": 1652,
    "ows</w>": 1653,
    " French</w>": 1654,
    "ense</w>": 1655,
    " major</w>": 1656,
    " div": 1657,
    " peri": 1658,
    " hal": 1659,
    " 19</w>": 1660,
    " fre": 1661,
    " 14</w>": 1662,
    " late</w>": 1663,
    " prob": 1664,
    " camp": 1665,
    "de</w>": 1666,
    " bas": 1667,
    " direc": 1668,
    " 16": 1669,
    " mag": 1670,
    " Gen": 1671,
    " deb": 1672,
    " best</w>": 1673,
    "equ": 1674,
    "eav": 1675,
    " next</w>": 1676,
    " cov": 1677,
    " south": 1678,
    " &": 1679,
    " &</w>": 1680,
    " exper": 1681,
    " conf": 1682,
    "ages</w>": 1683,
    " north</w>": 1684,
    " His</w>": 1685,
    "ral</w>": 1686,
    " organ": 1687,
    " men</w>": 1688,
    " 2010</w>": 1689,
    "ren</w>": 1690,
    " cur": 1691,
    " Char": 1692,
    "ling</w>": 1693,
    "ropical</w>": 1694,
    " 13</w>": 1695,
    " main": 1696,
    "ances</w>": 1697,
    " repl": 1698,
    " 16</w>": 1699,
    "illi": 1700,
    " Christ": 1701,
    "itary</w>": 1702,
    " del": 1703,
    " cour": 1704,
    " role</w>": 1705,
    " disp": 1706,
    "ged</w>": 1707,
    "med</w>": 1708,
    " ref": 1709,
    " tel": 1710,
    " Or": 1711,
    " band</w>": 1712,
    " death</w>": 1713,
    " auth": 1714,
    "ongs</w>": 1715,
    "aug": 1716,
    " simil": 1717,
    "isted</w>": 1718,
    " Ol": 1719,
    "ften</w>": 1720,
    " When</w>": 1721,
    "ars</w>": 1722,
    "uted</w>": 1723,
    "amb": 1724,
    " hum": 1725,
    " video</w>": 1726,
    "ences</w>": 1727,
    " success": 1728,
    " dam": 1729,
    " 100</w>": 1730,
    " init": 1731,
    " days</w>": 1732,
    " Qu": 1733,
    " Ge": 1734,
    " caus": 1735,
    " polit": 1736,
    " dra": 1737,
    " way</w>": 1738,
    "owed</w>": 1739,
    "air": 1740,
    " public</w>": 1741,
    "urch</w>": 1742,
    " over": 1743,
    " leg": 1744,
    "ality</w>": 1745,
    " often</w>": 1746,
    " held</w>": 1747,
    " considered</w>": 1748,
    " National</w>": 1749,
    "illed</w>": 1750,
    "yn": 1751,
    "V</w>": 1752,
    "oot": 1753,
    "idd": 1754,
    " again</w>": 1755,
    " continued</w>": 1756,
    " form</w>": 1757,
    " Rob": 1758,
    " do</w>": 1759,
    "ebru": 1760,
    "ments</w>": 1761,
    "ebruary</w>": 1762,
    "ept</w>": 1763,
    "oo</w>": 1764,
    " February</w>": 1765,
    " infl": 1766,
    " Comp": 1767,
    " 25</w>": 1768,
    " de</w>": 1769,
    "ests</w>": 1770,
    " England</w>": 1771,
    "ested</w>": 1772,
    " even</w>": 1773,
    " At": 1774,
    "ture</w>": 1775,
    "hout</w>": 1776,
    " believ": 1777,
    " tak": 1778,
    " player</w>": 1779,
    " 2007</w>": 1780,
    " version</w>": 1781,
    " beh": 1782,
    " El": 1783,
    " however</w>": 1784,
    " Ev": 1785,
    "side</w>": 1786,
    " 2008</w>": 1787,
    " you</w>": 1788,
    " River</w>": 1789,
    " pat": 1790,
    "iven</w>": 1791,
    " wom": 1792,
    "ball</w>": 1793,
    " without</w>": 1794,
    "esc": 1795,
    " City</w>": 1796,
    " moved</w>": 1797,
    " aw": 1798,
    "ister</w>": 1799,
    " cro": 1800,
    "aged</w>": 1801,
    "ator</w>": 1802,
    "oth": 1803,
    " came</w>": 1804,
    " book</w>": 1805,
    " members</w>": 1806,
    " 2009</w>": 1807,
    " Canad": 1808,
    " ship</w>": 1809,
    "ittle</w>": 1810,
    "ek</w>": 1811,
    "ker</w>": 1812,
    " top</w>": 1813,
    "ony</w>": 1814,
    "atic</w>": 1815,
    " storm</w>": 1816,
    " German</w>": 1817,
    "ried</w>": 1818,
    "aining</w>": 1819,
    " side</w>": 1820,
    " story</w>": 1821,
    "ole</w>": 1822,
    "ior</w>": 1823,
    " scen": 1824,
    " published</w>": 1825,
    "ize</w>": 1826,
    " direct": 1827,
    " Mus": 1828,
    " further</w>": 1829,
    "ths</w>": 1830,
    " former</w>": 1831,
    "ats</w>": 1832,
    " equ": 1833,
    " few</w>": 1834,
    "ak</w>": 1835,
    " During</w>": 1836,
    " struc": 1837,
    " south</w>": 1838,
    "ours</w>": 1839,
    "ank</w>": 1840,
    " though</w>": 1841,
    " town</w>": 1842,
    " coll": 1843,
    "N</w>": 1844,
    " Af": 1845,
    " local</w>": 1846,
    "by</w>": 1847,
    " release</w>": 1848,
    " them": 1849,
    " sw": 1850,
    "ford</w>": 1851,
    "ax": 1852,
    " 17</w>": 1853,
    "ness</w>": 1854,
    " hor": 1855,
    "lish</w>": 1856,
    "estern</w>": 1857,
    "ission</w>": 1858,
    "ington</w>": 1859,
    "ology</w>": 1860,
    "thers</w>": 1861,
    "anding</w>": 1862,
    " period</w>": 1863,
    "ris": 1864,
    "roduc": 1865,
    " tot": 1866,
    " written</w>": 1867,
    "ining</w>": 1868,
    " power</w>": 1869,
    " school</w>": 1870,
    "ams</w>": 1871,
    " arr": 1872,
    " prof": 1873,
    " having</w>": 1874,
    " support</w>": 1875,
    " recorded</w>": 1876,
    "ham</w>": 1877,
    " sugg": 1878,
    "ig</w>": 1879,
    "ights</w>": 1880,
    "bo": 1881,
    " Lond": 1882,
    " 2011</w>": 1883,
    "ark</w>": 1884,
    " among</w>": 1885,
    " gave</w>": 1886,
    "ully</w>": 1887,
    " become</w>": 1888,
    " London</w>": 1889,
    " different</w>": 1890,
    " returned</w>": 1891,
    "omp": 1892,
    "eal</w>": 1893,
    "lay": 1894,
    " B</w>": 1895,
    " point</w>": 1896,
    " take</w>": 1897,
    " half</w>": 1898,
    "ament</w>": 1899,
    " Willi": 1900,
    " repres": 1901,
    " Ed": 1902,
    "iqu": 1903,
    " Ab": 1904,
    "ograph": 1905,
    " war": 1906,
    " chang": 1907,
    " invol": 1908,
    " vict": 1909,
    " Pl": 1910,
    "ler</w>": 1911,
    "ific</w>": 1912,
    "E</w>": 1913,
    " we</w>": 1914,
    " contr": 1915,
    " old</w>": 1916,
    "loy": 1917,
    " Ac": 1918,
    "onn": 1919,
    " English</w>": 1920,
    " produced</w>": 1921,
    "ots</w>": 1922,
    "ret": 1923,
    " dest": 1924,
    " influ": 1925,
    " X": 1926,
    " West</w>": 1927,
    "ph</w>": 1928,
    " order</w>": 1929,
    " los": 1930,
    " short</w>": 1931,
    "ount</w>": 1932,
    " ant": 1933,
    " commun": 1934,
    "air</w>": 1935,
    " University</w>": 1936,
    " ord": 1937,
    " obs": 1938,
    " There</w>": 1939,
    " squ": 1940,
    " adm": 1941,
    "yle</w>": 1942,
    " plan": 1943,
    " posit": 1944,
    "di": 1945,
    " Ex": 1946,
    " company</w>": 1947,
    " Cent": 1948,
    " II</w>": 1949,
    " fri": 1950,
    " 15": 1951,
    "ock": 1952,
    " decl": 1953,
    " 21</w>": 1954,
    " di": 1955,
    " refer": 1956,
    " By</w>": 1957,
    "evision</w>": 1958,
    " Cal": 1959,
    "urric": 1960,
    " similar</w>": 1961,
    " cor": 1962,
    " water</w>": 1963,
    "onom": 1964,
    " import": 1965,
    " Batt": 1966,
    " 2012</w>": 1967,
    "ict</w>": 1968,
    "On</w>": 1969,
    " imm": 1970,
    " wat": 1971,
    "eed</w>": 1972,
    "echn": 1973,
    " history</w>": 1974,
    " career</w>": 1975,
    " include</w>": 1976,
    "ention</w>": 1977,
    " surv": 1978,
    " pra": 1979,
    "L</w>": 1980,
    "elt</w>": 1981,
    "reet</w>": 1982,
    " right</w>": 1983,
    " military</w>": 1984,
    " aff": 1985,
    " stat": 1986,
    " Gra": 1987,
    " per</w>": 1988,
    " youn": 1989,
    "aur": 1990,
    " building</w>": 1991,
    " Ass": 1992,
    " Sw": 1993,
    " Dav": 1994,
    " One</w>": 1995,
    " comb": 1996,
    "ges</w>": 1997,
    " child": 1998,
    " compet": 1999,
    " never</w>": 2000,
    " run</w>": 2001,
    " ships</w>": 2002,
    "rew</w>": 2003,
    "astern</w>": 2004,
    "ensive</w>": 2005,
    " C</w>": 2006,
    " er": 2007,
    "used</w>": 2008,
    "ioned</w>": 2009,
    " Her": 2010,
    " wea": 2011,
    " using</w>": 2012,
    "stit": 2013,
    " No</w>": 2014,
    " somet": 2015,
    " given</w>": 2016,
    " heav": 2017,
    "ably</w>": 2018,
    " went</w>": 2019,
    "eep</w>": 2020,
    "ccording</w>": 2021,
    "arded</w>": 2022,
    " stated</w>": 2023,
    "ind": 2024,
    " 2006</w>": 2025,
    " Geor": 2026,
    "ices</w>": 2027,
    "istr": 2028,
    "ott": 2029,
    " subs": 2030,
    " production</w>": 2031,
    "ops</w>": 2032,
    "ief</w>": 2033,
    " 12": 2034,
    " songs</w>": 2035,
    "dom</w>": 2036,
    " trav": 2037,
    " County</w>": 2038,
    " General</w>": 2039,
    "ising</w>": 2040,
    " announ": 2041,
    " All</w>": 2042,
    "ival</w>": 2043,
    " Div": 2044,
    "ail</w>": 2045,
    "ket</w>": 2046,
    "own": 2047,
    " And": 2048,
    "etter</w>": 2049,
    "ential</w>": 2050,
    " title</w>": 2051,
    " head": 2052,
    "umb": 2053,
    "ective</w>": 2054,
    " tro": 2055,
    " man</w>": 2056,
    "ring</w>": 2057,
    "ol</w>": 2058,
    "ord</w>": 2059,
    "ound": 2060,
    " noted</w>": 2061,
    " 190": 2062,
    "den</w>": 2063,
    " ren": 2064,
    " position</w>": 2065,
    "ority</w>": 2066,
    " inf": 2067,
    " match</w>": 2068,
    " Afric": 2069,
    "ental</w>": 2070,
    " nov": 2071,
    "ends</w>": 2072,
    "ady</w>": 2073,
    " class": 2074,
    "imself</w>": 2075,
    " how</w>": 2076,
    " join": 2077,
    " ow": 2078,
    " expl": 2079,
    " lim": 2080,
    " State</w>": 2081,
    " enc": 2082,
    " bur": 2083,
    "erial</w>": 2084,
    " himself</w>": 2085,
    "ditional</w>": 2086,
    " lost</w>": 2087,
    " Mor": 2088,
    " Sm": 2089,
    " fac": 2090,
    " development</w>": 2091,
    " near": 2092,
    " 11": 2093,
    "ircraft</w>": 2094,
    " claim": 2095,
    " making</w>": 2096,
    " country</w>": 2097,
    " gl": 2098,
    " histor": 2099,
    "utes</w>": 2100,
    " track</w>": 2101,
    " These</w>": 2102,
    " father</w>": 2103,
    " 24</w>": 2104,
    "ym": 2105,
    "ogether</w>": 2106,
    "ape</w>": 2107,
    " resul": 2108,
    "urricane</w>": 2109,
    " Pet": 2110,
    "yth": 2111,
    " 189": 2112,
    "omb": 2113,
    "ones</w>": 2114,
    " across</w>": 2115,
    " total</w>": 2116,
    "ight": 2117,
    " felt</w>": 2118,
    "ans": 2119,
    " Rom": 2120,
    "P</w>": 2121,
    "ang</w>": 2122,
    " times</w>": 2123,
    " fail": 2124,
    " Bra": 2125,
    " lead</w>": 2126,
    " died</w>": 2127,
    " developed</w>": 2128,
    " Cro": 2129,
    " ft</w>": 2130,
    " Rep": 2131,
    " land</w>": 2132,
    " For</w>": 2133,
    " control</w>": 2134,
    "ah</w>": 2135,
    "rem": 2136,
    "erb": 2137,
    "lay</w>": 2138,
    "ither</w>": 2139,
    " week</w>": 2140,
    " Although</w>": 2141,
    " James</w>": 2142,
    " established</w>": 2143,
    " less</w>": 2144,
    " signific": 2145,
    " destro": 2146,
    " intern": 2147,
    "wards</w>": 2148,
    "itted</w>": 2149,
    " sit": 2150,
    " Ang": 2151,
    " eight</w>": 2152,
    " reported</w>": 2153,
    "ver</w>": 2154,
    " Sec": 2155,
    " east</w>": 2156,
    " white</w>": 2157,
    " introduc": 2158,
    " America</w>": 2159,
    " months</w>": 2160,
    " diff": 2161,
    " remained</w>": 2162,
    "ra</w>": 2163,
    "ink</w>": 2164,
    "ending</w>": 2165,
    " fem": 2166,
    " areas</w>": 2167,
    " Army</w>": 2168,
    "ient</w>": 2169,
    "ses</w>": 2170,
    "ymp": 2171,
    "isc": 2172,
    " aircraft</w>": 2173,
    " throughout</w>": 2174,
    " television</w>": 2175,
    " suff": 2176,
    "ash</w>": 2177,
    " seen</w>": 2178,
    "eded</w>": 2179,
    " 2013</w>": 2180,
    "acters</w>": 2181,
    " pi": 2182,
    " attack</w>": 2183,
    " wid": 2184,
    " 50</w>": 2185,
    " hos": 2186,
    "K</w>": 2187,
    "F</w>": 2188,
    " good</w>": 2189,
    " result</w>": 2190,
    " campa": 2191,
    " away</w>": 2192,
    " League</w>": 2193,
    "ells</w>": 2194,
    " political</w>": 2195,
    " discov": 2196,
    " west</w>": 2197,
    " writing</w>": 2198,
    " ’": 2199,
    " ’</w>": 2200,
    " 22</w>": 2201,
    "anese</w>": 2202,
    " club</w>": 2203,
    " Tw": 2204,
    "aster</w>": 2205,
    " techn": 2206,
    "illa": 2207,
    "aying</w>": 2208,
    "idence</w>": 2209,
    " St</w>": 2210,
    "oph": 2211,
    "R</w>": 2212,
    " characters</w>": 2213,
    " super": 2214,
    "art</w>": 2215,
    " sel": 2216,
    "ination</w>": 2217,
    " Pres": 2218,
    " Australia</w>": 2219,
    " population</w>": 2220,
    " val": 2221,
    " Pol": 2222,
    " 10": 2223,
    "ency</w>": 2224,
    " seven</w>": 2225,
    "bor": 2226,
    " 23</w>": 2227,
    "app": 2228,
    " anim": 2229,
    " Division</w>": 2230,
    " children</w>": 2231,
    "ching</w>": 2232,
    "arm": 2233,
    "ope</w>": 2234,
    " little</w>": 2235,
    "ressed</w>": 2236,
    "ith": 2237,
    " service</w>": 2238,
    " forces</w>": 2239,
    "c</w>": 2240,
    "ression</w>": 2241,
    " win</w>": 2242,
    " design": 2243,
    "ld": 2244,
    " reached</w>": 2245,
    " Nav": 2246,
    "imately</w>": 2247,
    " term": 2248,
    " sent</w>": 2249,
    "anded</w>": 2250,
    "ries</w>": 2251,
    "ization</w>": 2252,
    "tered</w>": 2253,
    " head</w>": 2254,
    "ootball</w>": 2255,
    " Roy": 2256,
    " lev": 2257,
    " Gl": 2258,
    " prim": 2259,
    " class</w>": 2260,
    " arch": 2261,
    " players</w>": 2262,
    " various</w>": 2263,
    " Reg": 2264,
    "erage</w>": 2265,
    "ways</w>": 2266,
    " too</w>": 2267,
    " construction</w>": 2268,
    " should</w>": 2269,
    " son</w>": 2270,
    "ases</w>": 2271,
    "ble</w>": 2272,
    " created</w>": 2273,
    " King</w>": 2274,
    " fav": 2275,
    " common</w>": 2276,
    " pea": 2277,
    "line</w>": 2278,
    " manag": 2279,
    " cle": 2280,
    " hous": 2281,
    " tropical</w>": 2282,
    " s</w>": 2283,
    " served</w>": 2284,
    "akes</w>": 2285,
    " circ": 2286,
    " gran": 2287,
    " site</w>": 2288,
    "earch</w>": 2289,
    " Japanese</w>": 2290,
    " started</w>": 2291,
    "ularly</w>": 2292,
    " agre": 2293,
    "ws</w>": 2294,
    " ec": 2295,
    " Rec": 2296,
    "ectr": 2297,
    " ident": 2298,
    " age</w>": 2299,
    " While</w>": 2300,
    " perc": 2301,
    "ampion": 2302,
    " vol": 2303,
    " sett": 2304,
    " event": 2305,
    " previous</w>": 2306,
    " field</w>": 2307,
    " mm</w>": 2308,
    " performed</w>": 2309,
    "int": 2310,
    "ber": 2311,
    "ogn": 2312,
    "iel": 2313,
    " style</w>": 2314,
    " Sim": 2315,
    "ills</w>": 2316,
    "omm": 2317,
    " earli": 2318,
    " 28</w>": 2319,
    " becom": 2320,
    " bus": 2321,
    " formed</w>": 2322,
    " great</w>": 2323,
    "aces</w>": 2324,
    "ories</w>": 2325,
    " doc": 2326,
    " conn": 2327,
    "most</w>": 2328,
    " 2005</w>": 2329,
    " thought</w>": 2330,
    " air": 2331,
    " full</w>": 2332,
    " under": 2333,
    " miles</w>": 2334,
    " return</w>": 2335,
    " killed</w>": 2336,
    " it": 2337,
    " examp": 2338,
    " fire</w>": 2339,
    " feet</w>": 2340,
    " bir": 2341,
    " located</w>": 2342,
    "acked</w>": 2343,
    " Park</w>": 2344,
    " defe": 2345,
    "ront</w>": 2346,
    "ney</w>": 2347,
    " performance</w>": 2348,
    " body</w>": 2349,
    " success</w>": 2350,
    " low</w>": 2351,
    " force</w>": 2352,
    "iter": 2353,
    " able</w>": 2354,
    " four": 2355,
    " mot": 2356,
    " important</w>": 2357,
    " together</w>": 2358,
    " member</w>": 2359,
    " William</w>": 2360,
    " new": 2361,
    "Th": 2362,
    " pri": 2363,
    " capt": 2364,
    "dings</w>": 2365,
    " vari": 2366,
    " range</w>": 2367,
    " impro": 2368,
    "enced</w>": 2369,
    "ids</w>": 2370,
    " Tr": 2371,
    "ander</w>": 2372,
    " 2004</w>": 2373,
    "pper</w>": 2374,
    " activ": 2375,
    " completed</w>": 2376,
    " announced</w>": 2377,
    " 40</w>": 2378,
    " According</w>": 2379,
    "ama</w>": 2380,
    "ai</w>": 2381,
    "ersh": 2382,
    "lands</w>": 2383,
    " others</w>": 2384,
    "ingdom</w>": 2385,
    " black</w>": 2386,
    " 26</w>": 2387,
    " pow": 2388,
    "ummer</w>": 2389,
    "alls</w>": 2390,
    "yed</w>": 2391,
    " bar": 2392,
    " caused</w>": 2393,
    " followed</w>": 2394,
    " aud": 2395,
    " taken</w>": 2396,
    "ild</w>": 2397,
    " road</w>": 2398,
    " reduc": 2399,
    "yd": 2400,
    "adron</w>": 2401,
    " miss": 2402,
    "emy</w>": 2403,
    " roc": 2404,
    "etic</w>": 2405,
    "elling</w>": 2406,
    " cert": 2407,
    " Rich": 2408,
    " island</w>": 2409,
    "oice</w>": 2410,
    " scored</w>": 2411,
    " Med": 2412,
    " house</w>": 2413,
    " long": 2414,
    " decided</w>": 2415,
    " 188": 2416,
    " instead</w>": 2417,
    "ram</w>": 2418,
    " level</w>": 2419,
    "ecut": 2420,
    "ood": 2421,
    "epar": 2422,
    " Vi": 2423,
    "-</w>": 2424,
    "ication</w>": 2425,
    "ls</w>": 2426,
    "tions</w>": 2427,
    " design</w>": 2428,
    " fla": 2429,
    "ll</w>": 2430,
    " least</w>": 2431,
    "owing</w>": 2432,
    " France</w>": 2433,
    " appeared</w>": 2434,
    " R</w>": 2435,
    " 186": 2436,
    " light</w>": 2437,
    " D</w>": 2438,
    " Street</w>": 2439,
    "ishing</w>": 2440,
    " arg": 2441,
    " live</w>": 2442,
    "iting</w>": 2443,
    " port": 2444,
    " It": 2445,
    " sold</w>": 2446,
    " East</w>": 2447,
    "esh": 2448,
    " curren": 2449,
    "T</w>": 2450,
    " occur": 2451,
    "ont": 2452,
    "ech</w>": 2453,
    " person": 2454,
    "ush": 2455,
    "ille</w>": 2456,
    " ran": 2457,
    " present</w>": 2458,
    " Royal</w>": 2459,
    "iness</w>": 2460,
    "field</w>": 2461,
    "anted</w>": 2462,
    "rought</w>": 2463,
    " addition</w>": 2464,
    " critic": 2465,
    "enth</w>": 2466,
    " added</w>": 2467,
    " ten</w>": 2468,
    " Road</w>": 2469,
    " diffic": 2470,
    " general</w>": 2471,
    " relation": 2472,
    "azine</w>": 2473,
    " view": 2474,
    " hear": 2475,
    "ees</w>": 2476,
    " insp": 2477,
    "ael</w>": 2478,
    " fig": 2479,
    "50</w>": 2480,
    " playing</w>": 2481,
    " separ": 2482,
    "ica</w>": 2483,
    " born</w>": 2484,
    " national</w>": 2485,
    "epend": 2486,
    " Intern": 2487,
    " voc": 2488,
    " fle": 2489,
    " appoin": 2490,
    " once</w>": 2491,
    "alist</w>": 2492,
    " opened</w>": 2493,
    " every</w>": 2494,
    " features</w>": 2495,
    "edi": 2496,
    " events</w>": 2497,
    " women</w>": 2498,
    " Australian</w>": 2499,
    " pred": 2500,
    " upon</w>": 2501,
    "icated</w>": 2502,
    " !": 2503,
    " !</w>": 2504,
    "uk": 2505,
    "ky</w>": 2506,
    " cat": 2507,
    "O</w>": 2508,
    " generally</w>": 2509,
    " Per": 2510,
    "ob</w>": 2511,
    "ivid": 2512,
    " behind</w>": 2513,
    " route</w>": 2514,
    " modern</w>": 2515,
    " lat": 2516,
    " leng": 2517,
    "ators</w>": 2518,
    " 13": 2519,
    "wood</w>": 2520,
    "ac</w>": 2521,
    " Pal": 2522,
    "lant": 2523,
    "wing</w>": 2524,
    " Ros": 2525,
    " Co": 2526,
    " eventually</w>": 2527,
    " fif": 2528,
    " 27</w>": 2529,
    " runs</w>": 2530,
    " critics</w>": 2531,
    "ounded</w>": 2532,
    " bat": 2533,
    "man": 2534,
    " hon": 2535,
    " 29</w>": 2536,
    "lege</w>": 2537,
    "less</w>": 2538,
    " event</w>": 2539,
    "ionally</w>": 2540,
    " moun": 2541,
    "rag": 2542,
    " clos": 2543,
    " lab": 2544,
    " strong</w>": 2545,
    " Fin": 2546,
    "ump": 2547,
    " Bur": 2548,
    " Bel": 2549,
    " profess": 2550,
    " Gro": 2551,
    " h</w>": 2552,
    " mult": 2553,
    " campaign</w>": 2554,
    " villa": 2555,
    " allowed</w>": 2556,
    "bur": 2557,
    " cyc": 2558,
    "ys</w>": 2559,
    " worked</w>": 2560,
    "ple</w>": 2561,
    " laun": 2562,
    " region</w>": 2563,
    " Wal": 2564,
    "eth</w>": 2565,
    " Squ": 2566,
    " rather</w>": 2567,
    " respon": 2568,
    " points</w>": 2569,
    "oms</w>": 2570,
    " On": 2571,
    " House</w>": 2572,
    " Tur": 2573,
    "rec": 2574,
    " McC": 2575,
    " rest": 2576,
    " originally</w>": 2577,
    " provided</w>": 2578,
    " recogn": 2579,
    " Mad": 2580,
    " You</w>": 2581,
    "aching</w>": 2582,
    " hol": 2583,
    "iding</w>": 2584,
    " George</w>": 2585,
    " weeks</w>": 2586,
    " action</w>": 2587,
    " help": 2588,
    " dro": 2589,
    "ealth</w>": 2590,
    "B</w>": 2591,
    " air</w>": 2592,
    " rad": 2593,
    " young</w>": 2594,
    " reb": 2595,
    " subsequ": 2596,
    " All": 2597,
    " fourth</w>": 2598,
    "ata</w>": 2599,
    " 2003</w>": 2600,
    " broad": 2601,
    "ological</w>": 2602,
    " ever</w>": 2603,
    " Ag": 2604,
    " As": 2605,
    " almost</w>": 2606,
    "M</w>": 2607,
    " estim": 2608,
    "ials</w>": 2609,
    " Atlant": 2610,
    " F</w>": 2611,
    " get</w>": 2612,
    "alt": 2613,
    " Pa": 2614,
    " ground</w>": 2615,
    " re</w>": 2616,
    " cult": 2617,
    " individ": 2618,
    " cop": 2619,
    " associ": 2620,
    " Europe</w>": 2621,
    " believed</w>": 2622,
    " 2000</w>": 2623,
    " temp": 2624,
    " ste": 2625,
    " cou": 2626,
    " Mil": 2627,
    " inform": 2628,
    " case</w>": 2629,
    "ico</w>": 2630,
    "ient": 2631,
    " close</w>": 2632,
    " saw</w>": 2633,
    " nomin": 2634,
    " see</w>": 2635,
    "angu": 2636,
    " arm": 2637,
    " either</w>": 2638,
    " does</w>": 2639,
    "eth": 2640,
    " New": 2641,
    " Company</w>": 2642,
    " leading</w>": 2643,
    " stage</w>": 2644,
    " example</w>": 2645,
    "iment</w>": 2646,
    "ein</w>": 2647,
    " unc": 2648,
    "ank": 2649,
    " non</w>": 2650,
    "ili": 2651,
    " placed</w>": 2652,
    "inning</w>": 2653,
    "ums</w>": 2654,
    " brought</w>": 2655,
    " Alb": 2656,
    "ara</w>": 2657,
    " dev": 2658,
    " z": 2659,
    " tour</w>": 2660,
    " sequ": 2661,
    " novel</w>": 2662,
    " stri": 2663,
    " start</w>": 2664,
    " loo": 2665,
    " Rev": 2666,
    " dou": 2667,
    " Val": 2668,
    " wanted</w>": 2669,
    " working</w>": 2670,
    "sure</w>": 2671,
    "oss": 2672,
    " foc": 2673,
    " wife</w>": 2674,
    " inj": 2675,
    " run": 2676,
    "ap</w>": 2677,
    " successful</w>": 2678,
    " guns</w>": 2679,
    " open</w>": 2680,
    "au": 2681,
    "eph": 2682,
    "acy</w>": 2683,
    " race</w>": 2684,
    " With</w>": 2685,
    " neg": 2686,
    "ollowing</w>": 2687,
    " star</w>": 2688,
    " Wil": 2689,
    " average</w>": 2690,
    "oy</w>": 2691,
    " Ital": 2692,
    " Canada</w>": 2693,
    " my</w>": 2694,
    " station</w>": 2695,
    " lik": 2696,
    " mix": 2697,
    " prev": 2698,
    " fr": 2699,
    " battle</w>": 2700,
    " help</w>": 2701,
    " mor": 2702,
    "ex</w>": 2703,
    "ester</w>": 2704,
    " Mex": 2705,
    " esc": 2706,
    "orpor": 2707,
    "ox</w>": 2708,
    "artment</w>": 2709,
    " David</w>": 2710,
    "aper</w>": 2711,
    "iction</w>": 2712,
    " works</w>": 2713,
    " cam": 2714,
    " southern</w>": 2715,
    " sour": 2716,
    "eding</w>": 2717,
    " me</w>": 2718,
    "board</w>": 2719,
    "ociety</w>": 2720,
    " 2014</w>": 2721,
    " army</w>": 2722,
    " Hen": 2723,
    " Kingdom</w>": 2724,
    " finished</w>": 2725,
    " sal": 2726,
    " designed</w>": 2727,
    "eas</w>": 2728,
    "ming</w>": 2729,
    "ule</w>": 2730,
    " popular</w>": 2731,
    " featured</w>": 2732,
    "ampionship</w>": 2733,
    " 200</w>": 2734,
    " 500</w>": 2735,
    " de": 2736,
    "eting</w>": 2737,
    " put</w>": 2738,
    " project</w>": 2739,
    " Vir": 2740,
    " employ": 2741,
    " process</w>": 2742,
    "ocial</w>": 2743,
    " victory</w>": 2744,
    " night</w>": 2745,
    " desp": 2746,
    "oot</w>": 2747,
    " Thom": 2748,
    "oring</w>": 2749,
    " saying</w>": 2750,
    "istic</w>": 2751,
    " heavy</w>": 2752,
    " Cap": 2753,
    " L</w>": 2754,
    " pain": 2755,
    " towards</w>": 2756,
    "ican</w>": 2757,
    " law</w>": 2758,
    "iddle</w>": 2759,
    "ectively</w>": 2760,
    " he": 2761,
    " Ir": 2762,
    " Su": 2763,
    " damage</w>": 2764,
    " opening</w>": 2765,
    " thre": 2766,
    " soon</w>": 2767,
    " church</w>": 2768,
    "ae</w>": 2769,
    "After</w>": 2770,
    " nar": 2771,
    " met</w>": 2772,
    " scene</w>": 2773,
    " particularly</w>": 2774,
    " mid</w>": 2775,
    "aw</w>": 2776,
    "ger</w>": 2777,
    "ez</w>": 2778,
    " go</w>": 2779,
    " chart</w>": 2780,
    "form</w>": 2781,
    " Span": 2782,
    " Republ": 2783,
    " possible</w>": 2784,
    " Cre": 2785,
    " bi": 2786,
    "chiev": 2787,
    " hours</w>": 2788,
    " °": 2789,
    " °</w>": 2790,
    " priv": 2791,
    "espite</w>": 2792,
    " hit</w>": 2793,
    " joined</w>": 2794,
    "iforn": 2795,
    "aff</w>": 2796,
    " ly": 2797,
    " prep": 2798,
    " boo": 2799,
    " invest": 2800,
    " attempt</w>": 2801,
    " pract": 2802,
    "row</w>": 2803,
    " back": 2804,
    " her": 2805,
    " South": 2806,
    "odes</w>": 2807,
    "ote</w>": 2808,
    " mother</w>": 2809,
    " significant</w>": 2810,
    "lex</w>": 2811,
    " respons": 2812,
    " School</w>": 2813,
    " particip": 2814,
    "ference</w>": 2815,
    " Michael</w>": 2816,
    " 187": 2817,
    "imin": 2818,
    " largest</w>": 2819,
    " Mo": 2820,
    "urb": 2821,
    " troops</w>": 2822,
    "augh": 2823,
    " meas": 2824,
    "igan</w>": 2825,
    " 2015</w>": 2826,
    " ben": 2827,
    " Scot": 2828,
    " rest</w>": 2829,
    "stant": 2830,
    " Tra": 2831,
    "ald</w>": 2832,
    "irst</w>": 2833,
    "ano</w>": 2834,
    " Japan</w>": 2835,
    "ingly</w>": 2836,
    " involved</w>": 2837,
    " Ear": 2838,
    " replaced</w>": 2839,
    "ania</w>": 2840,
    " land": 2841,
    " Californ": 2842,
    " prec": 2843,
    "led": 2844,
    " real": 2845,
    " pit": 2846,
    "BC</w>": 2847,
    " stand": 2848,
    "pping</w>": 2849,
    " scre": 2850,
    " 2001</w>": 2851,
    " colla": 2852,
    " North": 2853,
    " we": 2854,
    " hurricane</w>": 2855,
    "rom": 2856,
    " Mag": 2857,
    "sc": 2858,
    "alion</w>": 2859,
    "ri</w>": 2860,
    " list</w>": 2861,
    " month</w>": 2862,
    " Di": 2863,
    "ique</w>": 2864,
    " syn": 2865,
    "ece</w>": 2866,
    " Robert</w>": 2867,
    " Thomas</w>": 2868,
    "oul": 2869,
    " Church</w>": 2870,
    " 2002</w>": 2871,
    "over</w>": 2872,
    " mph</w>": 2873,
    "ups</w>": 2874,
    "ude</w>": 2875,
    " European</w>": 2876,
    " California</w>": 2877,
    " appearance</w>": 2878,
    "ago</w>": 2879,
    "ounds</w>": 2880,
    " remov": 2881,
    "hib": 2882,
    "arg": 2883,
    " lo": 2884,
    " Mont": 2885,
    " earlier</w>": 2886,
    " whom</w>": 2887,
    " initially</w>": 2888,
    " territ": 2889,
    " office</w>": 2890,
    "efore</w>": 2891,
    " highest</w>": 2892,
    " electr": 2893,
    " Air</w>": 2894,
    " achiev": 2895,
    " avail": 2896,
    " nat": 2897,
    " ther": 2898,
    " cross": 2899,
    " human</w>": 2900,
    "oid</w>": 2901,
    " previously</w>": 2902,
    " Miss": 2903,
    " taking</w>": 2904,
    "edy</w>": 2905,
    "icted</w>": 2906,
    " praised</w>": 2907,
    "olution</w>": 2908,
    " relig": 2909,
    " mos": 2910,
    " relationship</w>": 2911,
    " Wash": 2912,
    " positive</w>": 2913,
    " elements</w>": 2914,
    "cil</w>": 2915,
    " real</w>": 2916,
    " President</w>": 2917,
    " 14": 2918,
    " Play": 2919,
    "Wh": 2920,
    "reg": 2921,
    "II</w>": 2922,
    " inn": 2923,
    "lus": 2924,
    "oor</w>": 2925,
    "kers</w>": 2926,
    "ters</w>": 2927,
    "ads</w>": 2928,
    " enough</w>": 2929,
    " High": 2930,
    " love</w>": 2931,
    " civ": 2932,
    " highway</w>": 2933,
    " Some</w>": 2934,
    " stars</w>": 2935,
    " grad": 2936,
    " hom": 2937,
    " transp": 2938,
    " contrib": 2939,
    " Virg": 2940,
    " To</w>": 2941,
    " forced</w>": 2942,
    "erved</w>": 2943,
    " passed</w>": 2944,
    " directed</w>": 2945,
    " nav": 2946,
    " expla": 2947,
    " journ": 2948,
    "eder": 2949,
    " find</w>": 2950,
    "eum</w>": 2951,
    " Indian</w>": 2952,
    " Washington</w>": 2953,
    "ye</w>": 2954,
    " phys": 2955,
    "onds</w>": 2956,
    " outside</w>": 2957,
    " required</w>": 2958,
    "fall</w>": 2959,
    "erous</w>": 2960,
    "ecutive</w>": 2961,
    " police</w>": 2962,
    "amm": 2963,
    "ebr": 2964,
    "ett</w>": 2965,
    "ung": 2966,
    "wh": 2967,
    "ecess": 2968,
    "ditions</w>": 2969,
    " Island</w>": 2970,
    "ilities</w>": 2971,
    "ift</w>": 2972,
    " central</w>": 2973,
    " Mal": 2974,
    "ric</w>": 2975,
    " front</w>": 2976,
    " official</w>": 2977,
    " Dep": 2978,
    "asc": 2979,
    " San</w>": 2980,
    " far</w>": 2981,
    "orial</w>": 2982,
    " told</w>": 2983,
    " move</w>": 2984,
    " issue</w>": 2985,
    " Mat": 2986,
    " usually</w>": 2987,
    " party</w>": 2988,
    "action</w>": 2989,
    "orary</w>": 2990,
    " female</w>": 2991,
    " accomp": 2992,
    "ucle": 2993,
    "ification</w>": 2994,
    "east</w>": 2995,
    "arily</w>": 2996,
    " ap": 2997,
    " nine</w>": 2998,
    "isting</w>": 2999,
    "oned</w>": 3000,
    " spent</w>": 3001,
    " term</w>": 3002,
    " John": 3003,
    " lear": 3004,
    " evidence</w>": 3005,
    "elled</w>": 3006,
    " northern</w>": 3007,
    " lin": 3008,
    "sel": 3009,
    " frequ": 3010,
    " goal</w>": 3011,
    " econom": 3012,
    " langu": 3013,
    "ida</w>": 3014,
    "uation</w>": 3015,
    " Two</w>": 3016,
    " Navy</w>": 3017,
    " eastern</w>": 3018,
    "ka</w>": 3019,
    " viol": 3020,
    " ended</w>": 3021,
    "ream</w>": 3022,
    "ax</w>": 3023,
    "ership</w>": 3024,
    " £": 3025,
    " £</w>": 3026,
    " sometimes</w>": 3027,
    " count": 3028,
    "yst": 3029,
    " abs": 3030,
    " mi</w>": 3031,
    "jects</w>": 3032,
    " Bos": 3033,
    " winds</w>": 3034,
    "port</w>": 3035,
    " Christian</w>": 3036,
    " loss</w>": 3037,
    " program": 3038,
    " Britain</w>": 3039,
    " arrived</w>": 3040,
    "ections</w>": 3041,
    "etting</w>": 3042,
    " 31</w>": 3043,
    " Rh": 3044,
    " free</w>": 3045,
    " The": 3046,
    "ison</w>": 3047,
    " An</w>": 3048,
    " increased</w>": 3049,
    "ools</w>": 3050,
    " above</w>": 3051,
    " commerc": 3052,
    "illing</w>": 3053,
    " India</w>": 3054,
    " Tre": 3055,
    " conduc": 3056,
    " tal": 3057,
    "asing</w>": 3058,
    "af": 3059,
    "aller</w>": 3060,
    " base</w>": 3061,
    " quar": 3062,
    " aut": 3063,
    " First</w>": 3064,
    " surf": 3065,
    " crew</w>": 3066,
    " Best</w>": 3067,
    " Emp": 3068,
    " intervi": 3069,
    "atory</w>": 3070,
    "ecting</w>": 3071,
    " Hol": 3072,
    " director</w>": 3073,
    " War": 3074,
    " International</w>": 3075,
    "ships</w>": 3076,
    " rul": 3077,
    "ession</w>": 3078,
    "inistr": 3079,
    "ula</w>": 3080,
    " esp": 3081,
    "cast</w>": 3082,
    " Olymp": 3083,
    "kn": 3084,
    " must</w>": 3085,
    " immedi": 3086,
    "leg": 3087,
    " review</w>": 3088,
    " 1990</w>": 3089,
    "ung</w>": 3090,
    "ability</w>": 3091,
    " length</w>": 3092,
    " Times</w>": 3093,
    "uter</w>": 3094,
    " whose</w>": 3095,
    " despite</w>": 3096,
    " maint": 3097,
    " Spanish</w>": 3098,
    " football</w>": 3099,
    " study</w>": 3100,
    " Fil": 3101,
    "uel</w>": 3102,
    "oke</w>": 3103,
    "oes</w>": 3104,
    " entire</w>": 3105,
    " special</w>": 3106,
    " river</w>": 3107,
    " Fre": 3108,
    " sil": 3109,
    " units</w>": 3110,
    " awarded</w>": 3111,
    " change</w>": 3112,
    " down": 3113,
    " round</w>": 3114,
    "eries</w>": 3115,
    "ibility</w>": 3116,
    " section</w>": 3117,
    " claimed</w>": 3118,
    " Sing": 3119,
    " come</w>": 3120,
    " signed</w>": 3121,
    "sw": 3122,
    "onic</w>": 3123,
    " fut": 3124,
    "itar</w>": 3125,
    " available</w>": 3126,
    " recording</w>": 3127,
    "erson</w>": 3128,
    " Sen": 3129,
    "ze</w>": 3130,
    " magazine</w>": 3131,
    " Lou": 3132,
    " training</w>": 3133,
    " better</w>": 3134,
    " Mac": 3135,
    "antry</w>": 3136,
    "ost": 3137,
    "reng": 3138,
    " itself</w>": 3139,
    " idea</w>": 3140,
    " emb": 3141,
    " Charles</w>": 3142,
    " Flor": 3143,
    "iber": 3144,
    "entary</w>": 3145,
    " command</w>": 3146,
    " T</w>": 3147,
    "unc": 3148,
    " turned</w>": 3149,
    " studio</w>": 3150,
    " social</w>": 3151,
    " Govern": 3152,
    " quick": 3153,
    "west</w>": 3154,
    " debut</w>": 3155,
    " according</w>": 3156,
    " rock</w>": 3157,
    " trib": 3158,
    " beginning</w>": 3159,
    " pot": 3160,
    "rison</w>": 3161,
    " shot</w>": 3162,
    "acted</w>": 3163,
    " Port": 3164,
    " portra": 3165,
    " writer</w>": 3166,
    " Cour": 3167,
    " Re": 3168,
    " size</w>": 3169,
    "ridge</w>": 3170,
    " numb": 3171,
    "icle</w>": 3172,
    " give</w>": 3173,
    " Jack": 3174,
    "ighting</w>": 3175,
    " Black</w>": 3176,
    "ferred</w>": 3177,
    " ordered</w>": 3178,
    " Av": 3179,
    " estimated</w>": 3180,
    "ergy</w>": 3181,
    " mem": 3182,
    " phot": 3183,
    " going</w>": 3184,
    " Music</w>": 3185,
    "tra</w>": 3186,
    "aries</w>": 3187,
    " Paul</w>": 3188,
    "igade</w>": 3189,
    "ellow</w>": 3190,
    "osition</w>": 3191,
    " educ": 3192,
    "aring</w>": 3193,
    " Brown</w>": 3194,
    " S</w>": 3195,
    "inia</w>": 3196,
    " plat": 3197,
    " lower</w>": 3198,
    " reviews</w>": 3199,
    "tor</w>": 3200,
    " O</w>": 3201,
    " UK</w>": 3202,
    " Henry</w>": 3203,
    "ready</w>": 3204,
    "esting</w>": 3205,
    " ed": 3206,
    " introduced</w>": 3207,
    " Vict": 3208,
    " White</w>": 3209,
    "ittee</w>": 3210,
    " independ": 3211,
    " cal": 3212,
    "bit": 3213,
    " red": 3214,
    "diers</w>": 3215,
    " Ant": 3216,
    " streng": 3217,
    " can": 3218,
    " parts</w>": 3219,
    "iled</w>": 3220,
    "asons</w>": 3221,
    " 1980</w>": 3222,
    " har": 3223,
    "hing</w>": 3224,
    " Associ": 3225,
    " resid": 3226,
    " center</w>": 3227,
    " states</w>": 3228,
    "ki</w>": 3229,
    " appointed</w>": 3230,
    "ush</w>": 3231,
    "rup": 3232,
    " 185": 3233,
    " Grand</w>": 3234,
    " Pac": 3235,
    " cover</w>": 3236,
    " cycl": 3237,
    " additional</w>": 3238,
    " shows</w>": 3239,
    "era</w>": 3240,
    " great": 3241,
    "ords</w>": 3242,
    " Great</w>": 3243,
    "usp": 3244,
    "ume</w>": 3245,
    " K</w>": 3246,
    "U</w>": 3247,
    " cast</w>": 3248,
    " remaining</w>": 3249,
    " Russ": 3250,
    " env": 3251,
    " sound</w>": 3252,
    " buildings</w>": 3253,
    " hand</w>": 3254,
    " so": 3255,
    " might</w>": 3256,
    "tation</w>": 3257,
    " acqu": 3258,
    " western</w>": 3259,
    " Off": 3260,
    " suggested</w>": 3261,
    " person</w>": 3262,
    "roun": 3263,
    " gr": 3264,
    " Bill": 3265,
    " Battle</w>": 3266,
    "ius</w>": 3267,
    "orting</w>": 3268,
    " Atlantic</w>": 3269,
    "ecially</w>": 3270,
    " Cor": 3271,
    " Love</w>": 3272,
    " soldiers</w>": 3273,
    " occas": 3274,
    " fact</w>": 3275,
    " regular</w>": 3276,
    " 60</w>": 3277,
    "As</w>": 3278,
    " attr": 3279,
    " 1970</w>": 3280,
    " interest</w>": 3281,
    "reland</w>": 3282,
    "unt": 3283,
    " Pe": 3284,
    "iana</w>": 3285,
    " court</w>": 3286,
    " type</w>": 3287,
    "mar": 3288,
    " latter</w>": 3289,
    " determ": 3290,
    " already</w>": 3291,
    " bri": 3292,
    "tery</w>": 3293,
    " daugh": 3294,
    " coast</w>": 3295,
    " failed</w>": 3296,
    "eption</w>": 3297,
    " Pat": 3298,
    "emper": 3299,
    " ?": 3300,
    " ?</w>": 3301,
    "read</w>": 3302,
    "ustry</w>": 3303,
    " groups</w>": 3304,
    " approx": 3305,
    " read": 3306,
    " tou": 3307,
    " lyric": 3308,
    " treat": 3309,
    " asked</w>": 3310,
    " stra": 3311,
    " Stud": 3312,
    " occup": 3313,
    " especially</w>": 3314,
    " quickly</w>": 3315,
    " larger</w>": 3316,
    " Du": 3317,
    " Cath": 3318,
    "aint</w>": 3319,
    " Bow": 3320,
    " episodes</w>": 3321,
    " carried</w>": 3322,
    " brother</w>": 3323,
    " nucle": 3324,
    " community</w>": 3325,
    " material</w>": 3326,
    " Pacific</w>": 3327,
    " intended</w>": 3328,
    " Sal": 3329,
    " remains</w>": 3330,
    " Em": 3331,
    " Be": 3332,
    "change</w>": 3333,
    " complete</w>": 3334,
    " program</w>": 3335,
    " Ireland</w>": 3336,
    "ites</w>": 3337,
    " international</w>": 3338,
    " character": 3339,
    " becoming</w>": 3340,
    " Del": 3341,
    " Tex": 3342,
    " rap": 3343,
    " Eg": 3344,
    " Union</w>": 3345,
    " minutes</w>": 3346,
    " bridge</w>": 3347,
    "ma</w>": 3348,
    " 184": 3349,
    " Cons": 3350,
    " Despite</w>": 3351,
    " Rou": 3352,
    " post</w>": 3353,
    " deg": 3354,
    " short": 3355,
    "ville</w>": 3356,
    " co</w>": 3357,
    "ins": 3358,
    " operations</w>": 3359,
    "acing</w>": 3360,
    " af": 3361,
    " future</w>": 3362,
    " pen": 3363,
    "ulation</w>": 3364,
    "rian</w>": 3365,
    " We</w>": 3366,
    " prem": 3367,
    " president</w>": 3368,
    " den": 3369,
    " Chin": 3370,
    " Michigan</w>": 3371,
    " Carol": 3372,
    " diss": 3373,
    " bomb": 3374,
    " 183": 3375,
    " withd": 3376,
    "ayl": 3377,
    " Mart": 3378,
    " gun</w>": 3379,
    "ises</w>": 3380,
    "etn": 3381,
    "isl": 3382,
    " liter": 3383,
    "ani</w>": 3384,
    " cel": 3385,
    " art</w>": 3386,
    "alled</w>": 3387,
    " Cup</w>": 3388,
    " pressure</w>": 3389,
    " settl": 3390,
    " Ber": 3391,
    " Africa</w>": 3392,
    " Rad": 3393,
    " red</w>": 3394,
    " spea": 3395,
    " proposed</w>": 3396,
    " Award</w>": 3397,
    " Virginia</w>": 3398,
    " sn": 3399,
    "thlet": 3400,
    " officers</w>": 3401,
    " That</w>": 3402,
    " H</w>": 3403,
    " end": 3404,
    " business</w>": 3405,
    " discovered</w>": 3406,
    " limited</w>": 3407,
    " destroyed</w>": 3408,
    " conclud": 3409,
    " Sev": 3410,
    " winning</w>": 3411,
    " ever": 3412,
    "enting</w>": 3413,
    " six": 3414,
    " Chic": 3415,
    " yard</w>": 3416,
    " 1960</w>": 3417,
    " league</w>": 3418,
    " appl": 3419,
    "pl": 3420,
    " proper": 3421,
    "men</w>": 3422,
    "incip": 3423,
    " score</w>": 3424,
    "lav": 3425,
    " pil": 3426,
    " Gar": 3427,
    " flight</w>": 3428,
    " From</w>": 3429,
    "eless</w>": 3430,
    "etwork</w>": 3431,
    " lines</w>": 3432,
    " Met": 3433,
    " cas": 3434,
    " 70</w>": 3435,
    " author": 3436,
    " Peter</w>": 3437,
    "edly</w>": 3438,
    " Hall</w>": 3439,
    "oday</w>": 3440,
    "ios</w>": 3441,
    " election</w>": 3442,
    "Y</w>": 3443,
    " Ara": 3444,
    " Angel": 3445,
    "to</w>": 3446,
    " Penn": 3447,
    "atively</w>": 3448,
    "ades</w>": 3449,
    " nearly</w>": 3450,
    "acking</w>": 3451,
    " students</w>": 3452,
    "uing</w>": 3453,
    " mixed</w>": 3454,
    "eway</w>": 3455,
    " multip": 3456,
    "asy</w>": 3457,
    " longer</w>": 3458,
    "truction</w>": 3459,
    " decision</w>": 3460,
    "enty</w>": 3461,
    "sen</w>": 3462,
    "ulated</w>": 3463,
    " E</w>": 3464,
    " hand": 3465,
    " related</w>": 3466,
    " docum": 3467,
    "ores</w>": 3468,
    " Mexico</w>": 3469,
    " staff</w>": 3470,
    " probably</w>": 3471,
    " rail": 3472,
    "erted</w>": 3473,
    " Red</w>": 3474,
    " view</w>": 3475,
    " Billboard</w>": 3476,
    "selves</w>": 3477,
    " cut</w>": 3478,
    "ires</w>": 3479,
    "ston</w>": 3480,
    " Jos": 3481,
    " thus</w>": 3482,
    " changed</w>": 3483,
    " manager</w>": 3484,
    " Vietn": 3485,
    " entered</w>": 3486,
    " yards</w>": 3487,
    " cer": 3488,
    " gold</w>": 3489,
    " Chicago</w>": 3490,
    " supported</w>": 3491,
    " happ": 3492,
    " money</w>": 3493,
    " US": 3494,
    " Res": 3495,
    "teen</w>": 3496,
    " 1999</w>": 3497,
    " J</w>": 3498,
    " 80</w>": 3499,
    " report</w>": 3500,
    "ona</w>": 3501,
    " ill": 3502,
    "ewh": 3503,
    " Kn": 3504,
    " wide</w>": 3505,
    " plan</w>": 3506,
    "ything</w>": 3507,
    " Cong": 3508,
    " susp": 3509,
    " done</w>": 3510,
    " probl": 3511,
    " Som": 3512,
    " bor": 3513,
    "yr": 3514,
    "olf</w>": 3515,
    " structure</w>": 3516,
    " arran": 3517,
    "over": 3518,
    " Phil": 3519,
    " county</w>": 3520,
    " summer</w>": 3521,
    " mach": 3522,
    " married</w>": 3523,
    " Other</w>": 3524,
    "ography</w>": 3525,
    "ealed</w>": 3526,
    " raised</w>": 3527,
    " changes</w>": 3528,
    " metal</w>": 3529,
    " Squadron</w>": 3530,
    " fleet</w>": 3531,
    " living</w>": 3532,
    " temper": 3533,
    " inh": 3534,
    " Jo": 3535,
    " appear</w>": 3536,
    "mb": 3537,
    " effects</w>": 3538,
    " cost</w>": 3539,
    "ket": 3540,
    " mostly</w>": 3541,
    " som": 3542,
    " agreed</w>": 3543,
    " helped</w>": 3544,
    "ateg": 3545,
    " Canadian</w>": 3546,
    " food</w>": 3547,
    " lyrics</w>": 3548,
    " leaving</w>": 3549,
    "arn": 3550,
    "vers": 3551,
    " date</w>": 3552,
    " approximately</w>": 3553,
    "ken</w>": 3554,
    " Chinese</w>": 3555,
    "iron": 3556,
    "per</w>": 3557,
    "unn": 3558,
    " likely</w>": 3559,
    "igg": 3560,
    "ocr": 3561,
    " review": 3562,
    " anal": 3563,
    " intens": 3564,
    " G</w>": 3565,
    "aut": 3566,
    " create</w>": 3567,
    "ota</w>": 3568,
    " College</w>": 3569,
    "lex": 3570,
    " Court</w>": 3571,
    "aps</w>": 3572,
    " Lat": 3573,
    " anc": 3574,
    " lack</w>": 3575,
    " musical</w>": 3576,
    " confl": 3577,
    "aid</w>": 3578,
    "enue</w>": 3579,
    " Los</w>": 3580,
    " defeated</w>": 3581,
    " king</w>": 3582,
    "ure": 3583,
    "astle</w>": 3584,
    " cause</w>": 3585,
    " God</w>": 3586,
    " turn</w>": 3587,
    "rd</w>": 3588,
    " Western</w>": 3589,
    "ro</w>": 3590,
    " administr": 3591,
    " copies</w>": 3592,
    " commercial</w>": 3593,
    " High</w>": 3594,
    " experience</w>": 3595,
    " space</w>": 3596,
    " smaller</w>": 3597,
    "ugh": 3598,
    "pital</w>": 3599,
    " vir": 3600,
    "eers</w>": 3601,
    " particular</w>": 3602,
    "imum</w>": 3603,
    " response</w>": 3604,
    " Association</w>": 3605,
    "eeds</w>": 3606,
    " higher</w>": 3607,
    " running</w>": 3608,
    "iss</w>": 3609,
    " woman</w>": 3610,
    " u": 3611,
    " themselves</w>": 3612,
    " provide</w>": 3613,
    "ull": 3614,
    " lived</w>": 3615,
    "imate</w>": 3616,
    "rif": 3617,
    " gir": 3618,
    " effect</w>": 3619,
    " captured</w>": 3620,
    " cm</w>": 3621,
    " male</w>": 3622,
    " elev": 3623,
    " terms</w>": 3624,
    "gra": 3625,
    "uals</w>": 3626,
    "airs</w>": 3627,
    "During</w>": 3628,
    "NA</w>": 3629,
    " Er": 3630,
    " attacks</w>": 3631,
    " purch": 3632,
    " Cr": 3633,
    "aval": 3634,
    "ibr": 3635,
    " colon": 3636,
    " influence</w>": 3637,
    " trade</w>": 3638,
    " Franc": 3639,
    "itude</w>": 3640,
    "anced</w>": 3641,
    "ylv": 3642,
    "ih": 3643,
    " self</w>": 3644,
    " language</w>": 3645,
    " current</w>": 3646,
    " difficult</w>": 3647,
    " Party</w>": 3648,
    "uff": 3649,
    " Wat": 3650,
    " research</w>": 3651,
    "eel": 3652,
    " complex</w>": 3653,
    " P</w>": 3654,
    " Force</w>": 3655,
    " 300</w>": 3656,
    " cru": 3657,
    " Song</w>": 3658,
    "au</w>": 3659,
    " 35</w>": 3660,
    "ret</w>": 3661,
    " distrib": 3662,
    " private</w>": 3663,
    " surface</w>": 3664,
    "cher</w>": 3665,
    "ya</w>": 3666,
    " Inter": 3667,
    "eather</w>": 3668,
    "osaur": 3669,
    " overall</w>": 3670,
    " Str": 3671,
    " mer": 3672,
    " includes</w>": 3673,
    " feature</w>": 3674,
    " If</w>": 3675,
    " surroun": 3676,
    " shown</w>": 3677,
    " tons</w>": 3678,
    " Ham": 3679,
    "oured</w>": 3680,
    " Carl": 3681,
    "G</w>": 3682,
    "eep": 3683,
    "esses</w>": 3684,
    " pass</w>": 3685,
    " films</w>": 3686,
    " discuss": 3687,
    "ino</w>": 3688,
    " appears</w>": 3689,
    " wal": 3690,
    " ranked</w>": 3691,
    " adop": 3692,
    " bran": 3693,
    " Pri": 3694,
    " occurred</w>": 3695,
    " capital</w>": 3696,
    "arters</w>": 3697,
    "uf": 3698,
    " tourn": 3699,
    " sex": 3700,
    " bra": 3701,
    " media</w>": 3702,
    " -</w>": 3703,
    " problems</w>": 3704,
    " fact": 3705,
    " contemp": 3706,
    "ero</w>": 3707,
    "orps</w>": 3708,
    " compared</w>": 3709,
    " Roman</w>": 3710,
    " mur": 3711,
    " Me": 3712,
    " Germany</w>": 3713,
    " Florida</w>": 3714,
    " always</w>": 3715,
    " purp": 3716,
    " Wales</w>": 3717,
    "yer</w>": 3718,
    " Croat": 3719,
    " 45</w>": 3720,
    "Al": 3721,
    " African</w>": 3722,
    " Ha": 3723,
    " goals</w>": 3724,
    " Most</w>": 3725,
    " Ot": 3726,
    "crip": 3727,
    "gn": 3728,
    " largely</w>": 3729,
    " Following</w>": 3730,
    "olic</w>": 3731,
    " kil": 3732,
    " face</w>": 3733,
    " compan": 3734,
    " ball</w>": 3735,
    " professional</w>": 3736,
    " daughter</w>": 3737,
    "ado</w>": 3738,
    " weap": 3739,
    " mean": 3740,
    " distr": 3741,
    " ang": 3742,
    "aches</w>": 3743,
    " increase</w>": 3744,
    " Lake</w>": 3745,
    " village</w>": 3746,
    " Route</w>": 3747,
    " teams</w>": 3748,
    " domin": 3749,
    " speed</w>": 3750,
    "ightly</w>": 3751,
    " Texas</w>": 3752,
    " fifth</w>": 3753,
    "illa</w>": 3754,
    " primary</w>": 3755,
    " Act</w>": 3756,
    "owled": 3757,
    " voice</w>": 3758,
    " TV</w>": 3759,
    " Hor": 3760,
    " scenes</w>": 3761,
    " Hist": 3762,
    "isions</w>": 3763,
    " chall": 3764,
    " adap": 3765,
    " damaged</w>": 3766,
    " How": 3767,
    "60</w>": 3768,
    "estion</w>": 3769,
    " planned</w>": 3770,
    "20</w>": 3771,
    " Games</w>": 3772,
    "antly</w>": 3773,
    " our</w>": 3774,
    " investig": 3775,
    "izing</w>": 3776,
    " information</w>": 3777,
    " radio</w>": 3778,
    " meeting</w>": 3779,
    " energy</w>": 3780,
    "iet</w>": 3781,
    " referred</w>": 3782,
    " inspired</w>": 3783,
    " leave</w>": 3784,
    "itting</w>": 3785,
    "ae": 3786,
    " Sup": 3787,
    " accep": 3788,
    " canc": 3789,
    " ol": 3790,
    " contract</w>": 3791,
    " 179": 3792,
    " Gil": 3793,
    "eign</w>": 3794,
    " names</w>": 3795,
    " whether</w>": 3796,
    " Air": 3797,
    " Game</w>": 3798,
    " suppl": 3799,
    " ment": 3800,
    " Day</w>": 3801,
    " listed</w>": 3802,
    " underst": 3803,
    "ij": 3804,
    " earned</w>": 3805,
    " subsequently</w>": 3806,
    " anti</w>": 3807,
    "ications</w>": 3808,
    " movement</w>": 3809,
    "ark": 3810,
    "use</w>": 3811,
    " percent</w>": 3812,
    " Gal": 3813,
    " moving</w>": 3814,
    " notes</w>": 3815,
    " makes</w>": 3816,
    " sea</w>": 3817,
    "ortion</w>": 3818,
    " act</w>": 3819,
    " Battalion</w>": 3820,
    " Hill</w>": 3821,
    "eter</w>": 3822,
    " past</w>": 3823,
    "liament</w>": 3824,
    "atives</w>": 3825,
    " sen": 3826,
    " meth": 3827,
    " majority</w>": 3828,
    "jected</w>": 3829,
    " ran</w>": 3830,
    " numbers</w>": 3831,
    "ath</w>": 3832,
    " personal</w>": 3833,
    " prior</w>": 3834,
    " newsp": 3835,
    "ial": 3836,
    " experi": 3837,
    " Cas": 3838,
    "W</w>": 3839,
    "aul": 3840,
    " Victor": 3841,
    " Its</w>": 3842,
    " finally</w>": 3843,
    " launched</w>": 3844,
    " Ne": 3845,
    " jud": 3846,
    "head</w>": 3847,
    " location</w>": 3848,
    " sem": 3849,
    " course</w>": 3850,
    " selected</w>": 3851,
    " contains</w>": 3852,
    " status</w>": 3853,
    " really</w>": 3854,
    " broadcast</w>": 3855,
    "icles</w>": 3856,
    "itions</w>": 3857,
    "umed</w>": 3858,
    " room</w>": 3859,
    "ena</w>": 3860,
    "aily</w>": 3861,
    " producer</w>": 3862,
    " immediately</w>": 3863,
    " Central</w>": 3864,
    " issued</w>": 3865,
    " fans</w>": 3866,
    "aylor</w>": 3867,
    "int</w>": 3868,
    " something</w>": 3869,
    "ederal</w>": 3870,
    " emerg": 3871,
    " initial</w>": 3872,
    " Highway</w>": 3873,
    "trum": 3874,
    " ult": 3875,
    " Jenn": 3876,
    " 1950</w>": 3877,
    " cred": 3878,
    " critical</w>": 3879,
    " Awards</w>": 3880,
    " stories</w>": 3881,
    "ionary</w>": 3882,
    " Richard</w>": 3883,
    "shire</w>": 3884,
    " rights</w>": 3885,
    " commiss": 3886,
    " Bas": 3887,
    " removed</w>": 3888,
    " Sea</w>": 3889,
    " Lord</w>": 3890,
    " Championship</w>": 3891,
    " Smith</w>": 3892,
    "za</w>": 3893,
    " Maj": 3894,
    " countries</w>": 3895,
    " commented</w>": 3896,
    "ration</w>": 3897,
    " cond": 3898,
    " poor</w>": 3899,
    " uns": 3900,
    " sat": 3901,
    " battl": 3902,
    " polic": 3903,
    " tas": 3904,
    " aband": 3905,
    " App": 3906,
    "ffic</w>": 3907,
    " Carolina</w>": 3908,
    " records</w>": 3909,
    " saf": 3910,
    " Center</w>": 3911,
    " observ": 3912,
    "ef</w>": 3913,
    " Gr": 3914,
    " edit": 3915,
    " Ter": 3916,
    "eman</w>": 3917,
    " press</w>": 3918,
    "riage</w>": 3919,
    "eball</w>": 3920,
    " Man</w>": 3921,
    " cand": 3922,
    " constructed</w>": 3923,
    " Later</w>": 3924,
    " combat</w>": 3925,
    "itive</w>": 3926,
    " ur": 3927,
    " ending</w>": 3928,
    " deliv": 3929,
    " respectively</w>": 3930,
    " via</w>": 3931,
    " Tor": 3932,
    "ainment</w>": 3933,
    " May": 3934,
    " Egyp": 3935,
    " Sol": 3936,
    " need</w>": 3937,
    " forward</w>": 3938,
    "arian</w>": 3939,
    " Council</w>": 3940,
    "chester</w>": 3941,
    " der": 3942,
    " upper</w>": 3943,
    " detail": 3944,
    "unk</w>": 3945,
    "uries</w>": 3946,
    "ibly</w>": 3947,
    "sylv": 3948,
    " 1995</w>": 3949,
    "arding</w>": 3950,
    " yet</w>": 3951,
    " Her</w>": 3952,
    " closed</w>": 3953,
    " metres</w>": 3954,
    "uated</w>": 3955,
    "oods</w>": 3956,
    " tracks</w>": 3957,
    "erve</w>": 3958,
    " elected</w>": 3959,
    "sh</w>": 3960,
    " whole</w>": 3961,
    " needed</w>": 3962,
    "anks</w>": 3963,
    "urity</w>": 3964,
    "ustri": 3965,
    "aker</w>": 3966,
    " Tran": 3967,
    " Ben": 3968,
    " engin": 3969,
    " Nev": 3970,
    " But</w>": 3971,
    "ulf</w>": 3972,
    " refl": 3973,
    " Kar": 3974,
    " celebr": 3975,
    "H</w>": 3976,
    "eling</w>": 3977,
    " fell</w>": 3978,
    " indic": 3979,
    " suffered</w>": 3980,
    " friend</w>": 3981,
    " Many</w>": 3982,
    " Win": 3983,
    " certain</w>": 3984,
    " interview</w>": 3985,
    " friends</w>": 3986,
    " Stev": 3987,
    " confir": 3988,
    " constit": 3989,
    " officer</w>": 3990,
    " extended</w>": 3991,
    " nature</w>": 3992,
    " Cross</w>": 3993,
    " scrip": 3994,
    " Moun": 3995,
    " financ": 3996,
    "erful</w>": 3997,
    "entation</w>": 3998,
    " hun": 3999,
    " stre": 4000,
    " refused</w>": 4001,
    " Zeal": 4002,
    " offered</w>": 4003,
    "rick</w>": 4004,
    " books</w>": 4005,
    " 1940</w>": 4006,
    " Arch": 4007,
    " mom": 4008,
    " 36</w>": 4009,
    " allow</w>": 4010,
    " Bec": 4011,
    " Southern</w>": 4012,
    "ension</w>": 4013,
    " giving</w>": 4014,
    "othing</w>": 4015,
    "ils</w>": 4016,
    " Old</w>": 4017,
    " Sk": 4018,
    " struct": 4019,
    " assigned</w>": 4020,
    " princip": 4021,
    "inent</w>": 4022,
    " centre</w>": 4023,
    "ene</w>": 4024,
    " hund": 4025,
    "anna</w>": 4026,
    " Second</w>": 4027,
    " thr": 4028,
    " see": 4029,
    " t</w>": 4030,
    " think</w>": 4031,
    "ollow</w>": 4032,
    "ox": 4033,
    " unit</w>": 4034,
    " theme</w>": 4035,
    " instrum": 4036,
    " word</w>": 4037,
    " disapp": 4038,
    " Johnson</w>": 4039,
    "thy</w>": 4040,
    " directly</w>": 4041,
    " scient": 4042,
    " Taylor</w>": 4043,
    " natural</w>": 4044,
    "odies</w>": 4045,
    "oura": 4046,
    " Tom</w>": 4047,
    " Star</w>": 4048,
    "udd": 4049,
    "rog": 4050,
    " plans</w>": 4051,
    " active</w>": 4052,
    " means</w>": 4053,
    "ps": 4054,
    " Hot</w>": 4055,
    " environ": 4056,
    " Saint</w>": 4057,
    "ify</w>": 4058,
    " religious</w>": 4059,
    " unable</w>": 4060,
    " services</w>": 4061,
    " below</w>": 4062,
    " numerous</w>": 4063,
    " direct</w>": 4064,
    " 1998</w>": 4065,
    " archit": 4066,
    " Pennsylv": 4067,
    "imb": 4068,
    " Cub": 4069,
    " nearby</w>": 4070,
    "ylan</w>": 4071,
    " enj": 4072,
    " necess": 4073,
    " Inf": 4074,
    " Bay</w>": 4075,
    "yal</w>": 4076,
    " bal": 4077,
    "orm</w>": 4078,
    "ster</w>": 4079,
    "iff</w>": 4080,
    " 1996</w>": 4081,
    "na</w>": 4082,
    " III</w>": 4083,
    " Imp": 4084,
    "day</w>": 4085,
    " rate</w>": 4086,
    "itation</w>": 4087,
    "ods</w>": 4088,
    " declared</w>": 4089,
    " birds</w>": 4090,
    "uses</w>": 4091,
    " got</w>": 4092,
    "iny</w>": 4093,
    " strong": 4094,
    "eff": 4095,
    " cann": 4096,
    " attention</w>": 4097,
    " deal</w>": 4098,
    " takes</w>": 4099,
    " sent": 4100,
    "fully</w>": 4101,
    "itch": 4102,
    "ingu": 4103,
    " NY</w>": 4104,
    " presence</w>": 4105,
    "zz": 4106,
    " Enter": 4107,
    "ois</w>": 4108,
    " targ": 4109,
    " attended</w>": 4110,
    " middle</w>": 4111,
    " level": 4112,
    " Tel": 4113,
    " traffic</w>": 4114,
    " Kh": 4115,
    "berg</w>": 4116,
    " attempted</w>": 4117,
    " schools</w>": 4118,
    " variety</w>": 4119,
    " 90</w>": 4120,
    " Minister</w>": 4121,
    " Both</w>": 4122,
    " 1997</w>": 4123,
    "enant</w>": 4124,
    " Big</w>": 4125,
    "At</w>": 4126,
    " covered</w>": 4127,
    " Hal": 4128,
    "eror</w>": 4129,
    " individual</w>": 4130,
    " Exp": 4131,
    "yt": 4132,
    " Earth</w>": 4133,
    " shar": 4134,
    " Fr": 4135,
    " leader</w>": 4136,
    " separate</w>": 4137,
    " legisl": 4138,
    " Mass": 4139,
    " spir": 4140,
    " Sl": 4141,
    " know</w>": 4142,
    "has": 4143,
    " Jackson</w>": 4144,
    " competition</w>": 4145,
    " 1930</w>": 4146,
    " theat": 4147,
    " Corps</w>": 4148,
    "like</w>": 4149,
    " reduced</w>": 4150,
    " double</w>": 4151,
    " mass</w>": 4152,
    " conditions</w>": 4153,
    "bert</w>": 4154,
    " Creek</w>": 4155,
    "eled</w>": 4156,
    " presented</w>": 4157,
    " sched": 4158,
    "aught</w>": 4159,
    "osph": 4160,
    " max": 4161,
    " resulted</w>": 4162,
    "ault</w>": 4163,
    " Brigade</w>": 4164,
    " 181": 4165,
    "yg": 4166,
    "aff": 4167,
    "istance</w>": 4168,
    " hour</w>": 4169,
    " stating</w>": 4170,
    " figure</w>": 4171,
    " Dr": 4172,
    " 00</w>": 4173,
    "let</w>": 4174,
    "lad": 4175,
    " Serv": 4176,
    "otes</w>": 4177,
    " peak</w>": 4178,
    " Irish</w>": 4179,
    " minor</w>": 4180,
    " Sur": 4181,
    " Hel": 4182,
    " thir": 4183,
    "lin</w>": 4184,
    " Tech</w>": 4185,
    " Club</w>": 4186,
    " matches</w>": 4187,
    " scoring</w>": 4188,
    " cho": 4189,
    " industry</w>": 4190,
    " associated</w>": 4191,
    " square</w>": 4192,
    " produce</w>": 4193,
    " Adm": 4194,
    " altern": 4195,
    " Angeles</w>": 4196,
    " responsible</w>": 4197,
    "tro</w>": 4198,
    " Dan": 4199,
    " composed</w>": 4200,
    " veh": 4201,
    " Fur": 4202,
    "alty</w>": 4203,
    " port</w>": 4204,
    " Fle": 4205,
    " writers</w>": 4206,
    "olut": 4207,
    " Sir</w>": 4208,
    "que</w>": 4209,
    " society</w>": 4210,
    "ier": 4211,
    " norm": 4212,
    "cean</w>": 4213,
    " Camb": 4214,
    " depression</w>": 4215,
    " Bey": 4216,
    " Zealand</w>": 4217,
    " defeat</w>": 4218,
    " lif": 4219,
    "ighter</w>": 4220,
    " Ram": 4221,
    " spl": 4222,
    "ocks</w>": 4223,
    " 1992</w>": 4224,
    " symb": 4225,
    " crow": 4226,
    "kin</w>": 4227,
    "lled</w>": 4228,
    " traditional</w>": 4229,
    " artist</w>": 4230,
    "uit</w>": 4231,
    " rat": 4232,
    " highly</w>": 4233,
    "astic</w>": 4234,
    " source</w>": 4235,
    " network</w>": 4236,
    " sides</w>": 4237,
    " attacked</w>": 4238,
    " gam": 4239,
    " standard</w>": 4240,
    " pan": 4241,
    " pre</w>": 4242,
    " asp": 4243,
    "oration</w>": 4244,
    " reach</w>": 4245,
    " underg": 4246,
    " candid": 4247,
    "ik</w>": 4248,
    "chd": 4249,
    " purs": 4250,
    " Latin</w>": 4251,
    "ror</w>": 4252,
    " hop": 4253,
    "iser</w>": 4254,
    " qual": 4255,
    " tournament</w>": 4256,
    " annual</w>": 4257,
    " ps": 4258,
    " Gol": 4259,
    " Dylan</w>": 4260,
    " continue</w>": 4261,
    " chap": 4262,
    " minute</w>": 4263,
    "onstr": 4264,
    " actions</w>": 4265,
    "yph": 4266,
    " intell": 4267,
    " Ill": 4268,
    " Department</w>": 4269,
    " pair</w>": 4270,
    " dig": 4271,
    " observed</w>": 4272,
    "ita</w>": 4273,
    " issues</w>": 4274,
    " tower</w>": 4275,
    " perm": 4276,
    " rein": 4277,
    " levels</w>": 4278,
    "off</w>": 4279,
    " keep</w>": 4280,
    " access</w>": 4281,
    "aded</w>": 4282,
    " Greek</w>": 4283,
    "icians</w>": 4284,
    " revealed</w>": 4285,
    " withdra": 4286,
    "iel</w>": 4287,
    "ud</w>": 4288,
    " founded</w>": 4289,
    "AF</w>": 4290,
    " territory</w>": 4291,
    " web": 4292,
    " forms</w>": 4293,
    " Fort</w>": 4294,
    " Regiment</w>": 4295,
    "eous</w>": 4296,
    " Haw": 4297,
    " audience</w>": 4298,
    " sister</w>": 4299,
    "eath": 4300,
    " key</w>": 4301,
    " compl": 4302,
    "quarters</w>": 4303,
    " commander</w>": 4304,
    " Edward</w>": 4305,
    " Mark</w>": 4306,
    " Jack</w>": 4307,
    "ician</w>": 4308,
    " twenty</w>": 4309,
    " actually</w>": 4310,
    " Pennsylvania</w>": 4311,
    "eck</w>": 4312,
    " flag</w>": 4313,
    " extrem": 4314,
    "usb": 4315,
    " X</w>": 4316,
    " build</w>": 4317,
    " letter</w>": 4318,
    "mer</w>": 4319,
    " plot</w>": 4320,
    "utch</w>": 4321,
    "otel</w>": 4322,
    " performances</w>": 4323,
    " cric": 4324,
    " trial</w>": 4325,
    "ayed</w>": 4326,
    " plant</w>": 4327,
    " peaked</w>": 4328,
    " 75</w>": 4329,
    " accompan": 4330,
    " schol": 4331,
    " accepted</w>": 4332,
    " 1993</w>": 4333,
    " fighting</w>": 4334,
    "embly</w>": 4335,
    "rier</w>": 4336,
    " subject</w>": 4337,
    " uses</w>": 4338,
    " Adv": 4339,
    " begins</w>": 4340,
    " write</w>": 4341,
    " concer": 4342,
    " promot": 4343,
    " expected</w>": 4344,
    "com</w>": 4345,
    " 400</w>": 4346,
    " Acad": 4347,
    "ners</w>": 4348,
    " demonstr": 4349,
    " neigh": 4350,
    " Tenn": 4351,
    " bow": 4352,
    " houses</w>": 4353,
    " account</w>": 4354,
    "ortun": 4355,
    " inches</w>": 4356,
    "esis</w>": 4357,
    " Dem": 4358,
    " innings</w>": 4359,
    " call</w>": 4360,
    "ai": 4361,
    " Oper": 4362,
    " concluded</w>": 4363,
    " Gi": 4364,
    " singer</w>": 4365,
    " child</w>": 4366,
    "ris</w>": 4367,
    "oin</w>": 4368,
    " hard</w>": 4369,
    " horse</w>": 4370,
    " dism": 4371,
    " Lab": 4372,
    "rad": 4373,
    "essed</w>": 4374,
    "og</w>": 4375,
    " termin": 4376,
    "orped": 4377,
    "uch": 4378,
    " Frank</w>": 4379,
    " Sov": 4380,
    " recomm": 4381,
    "road</w>": 4382,
    "bre": 4383,
    " las": 4384,
    " effort</w>": 4385,
    " officials</w>": 4386,
    " 1994</w>": 4387,
    " magn": 4388,
    "der": 4389,
    " core</w>": 4390,
    "icts</w>": 4391,
    "rid</w>": 4392,
    " completely</w>": 4393,
    " dom": 4394,
    " 1991</w>": 4395,
    " pun": 4396,
    " mass": 4397,
    " meaning</w>": 4398,
    " My</w>": 4399,
    " ded": 4400,
    "aped</w>": 4401,
    "ian": 4402,
    " Arm": 4403,
    " transferred</w>": 4404,
    "uv": 4405,
    " operation</w>": 4406,
    "erp": 4407,
    " concept</w>": 4408,
    " things</w>": 4409,
    " appar": 4410,
    " cerem": 4411,
    "estival</w>": 4412,
    " d</w>": 4413,
    " showed</w>": 4414,
    "iller</w>": 4415,
    " horses</w>": 4416,
    " calling</w>": 4417,
    " Year</w>": 4418,
    " weak": 4419,
    "acter": 4420,
    " Mi": 4421,
    "ada</w>": 4422,
    " clear</w>": 4423,
    "ny</w>": 4424,
    " sales</w>": 4425,
    " ess": 4426,
    "wor": 4427,
    "ont</w>": 4428,
    " genus</w>": 4429,
    " torped": 4430,
    " car</w>": 4431,
    " husb": 4432,
    "arity</w>": 4433,
    " quality</w>": 4434,
    " widely</w>": 4435,
    "orter</w>": 4436,
    " allowing</w>": 4437,
    " model</w>": 4438,
    "icip": 4439,
    " meant</w>": 4440,
    " pal": 4441,
    "ami</w>": 4442,
    " propos": 4443,
    " Italian</w>": 4444,
    " vocals</w>": 4445,
    "annel</w>": 4446,
    " dise": 4447,
    "MS</w>": 4448,
    " tour": 4449,
    " poem</w>": 4450,
    " Hom": 4451,
    "off": 4452,
    " starting</w>": 4453,
    " parents</w>": 4454,
    "eeded</w>": 4455,
    "40</w>": 4456,
    " Scotland</w>": 4457,
    " inside</w>": 4458,
    " designated</w>": 4459,
    "ych": 4460,
    " marked</w>": 4461,
    " 33</w>": 4462,
    " Conn": 4463,
    " Ver": 4464,
    "aging</w>": 4465,
    " sequence</w>": 4466,
    " Feder": 4467,
    " nin": 4468,
    " greatest</w>": 4469,
    "yan</w>": 4470,
    "ari</w>": 4471,
    " fort": 4472,
    " Paris</w>": 4473,
    " Mer": 4474,
    " inters": 4475,
    "yb": 4476,
    "ogue</w>": 4477,
    " award</w>": 4478,
    "omb</w>": 4479,
    "emic</w>": 4480,
    " But": 4481,
    " fru": 4482,
    " us</w>": 4483,
    " behav": 4484,
    " China</w>": 4485,
    "ora</w>": 4486,
    " Oliv": 4487,
    " Pers": 4488,
    " dut": 4489,
    " attempts</w>": 4490,
    " residents</w>": 4491,
    "30</w>": 4492,
    " consider": 4493,
    " becomes</w>": 4494,
    " situation</w>": 4495,
    " tried</w>": 4496,
    " Another</w>": 4497,
    " coin": 4498,
    " Camp": 4499,
    " cos": 4500,
    "oman</w>": 4501,
    " slightly</w>": 4502,
    " health</w>": 4503,
    " amount</w>": 4504,
    " chem": 4505,
    " Bre": 4506,
    "rated</w>": 4507,
    " du": 4508,
    " Their</w>": 4509,
    "of": 4510,
    " market</w>": 4511,
    " efforts</w>": 4512,
    "ieut": 4513,
    " Mary</w>": 4514,
    "he": 4515,
    " dead</w>": 4516,
    " athlet": 4517,
    " DV": 4518,
    " Queen</w>": 4519,
    " greater</w>": 4520,
    " older</w>": 4521,
    "ields</w>": 4522,
    "istry</w>": 4523,
    " marriage</w>": 4524,
    " kilomet": 4525,
    " specific</w>": 4526,
    " interp": 4527,
    " education</w>": 4528,
    " board</w>": 4529,
    " rang": 4530,
    "well</w>": 4531,
    "ging</w>": 4532,
    " Ox": 4533,
    " Time</w>": 4534,
    " Luc": 4535,
    " multiple</w>": 4536,
    " remain</w>": 4537,
    " Empire</w>": 4538,
    " companies</w>": 4539,
    " division</w>": 4540,
    " Crit": 4541,
    " V</w>": 4542,
    " rating</w>": 4543,
    " Gulf</w>": 4544,
    " strugg": 4545,
    " Jul": 4546,
    " thous": 4547,
    " 2016</w>": 4548,
    " approach</w>": 4549,
    " conducted</w>": 4550,
    "ver": 4551,
    " Group</w>": 4552,
    " elect": 4553,
    " Gam": 4554,
    "ply</w>": 4555,
    " collection</w>": 4556,
    " wall</w>": 4557,
    "eenth</w>": 4558,
    "gs</w>": 4559,
    " figures</w>": 4560,
    " viewers</w>": 4561,
    " floo": 4562,
    " adj": 4563,
    " continues</w>": 4564,
    "ette</w>": 4565,
    " plants</w>": 4566,
    " struck</w>": 4567,
    "stitute</w>": 4568,
    " distance</w>": 4569,
    " Dis": 4570,
    " De": 4571,
    "ditionally</w>": 4572,
    " plays</w>": 4573,
    " Three</w>": 4574,
    "back</w>": 4575,
    " Dar": 4576,
    " guitar</w>": 4577,
    " hold</w>": 4578,
    " collabor": 4579,
    " encoun": 4580,
    " 38</w>": 4581,
    " 182": 4582,
    "ims</w>": 4583,
    "olves</w>": 4584,
    " Republic</w>": 4585,
    " W</w>": 4586,
    "ipped</w>": 4587,
    " impl": 4588,
    " squadron</w>": 4589,
    "yn</w>": 4590,
    " Mos": 4591,
    " Museum</w>": 4592,
    " mel": 4593,
    " ple": 4594,
    "ibrary</w>": 4595,
    "ype</w>": 4596,
    " far": 4597,
    " Northern</w>": 4598,
    " 32</w>": 4599,
    " science</w>": 4600,
    " powerful</w>": 4601,
    "co</w>": 4602,
    " Rail": 4603,
    " Wee": 4604,
    " Alex": 4605,
    "ordin": 4606,
    " resulting</w>": 4607,
    "lo": 4608,
    "ieutenant</w>": 4609,
    " exhib": 4610,
    " ability</w>": 4611,
    " vess": 4612,
    " Publ": 4613,
    " Bal": 4614,
    " edition</w>": 4615,
    "agon": 4616,
    " activity</w>": 4617,
    " Records</w>": 4618,
    " financial</w>": 4619,
    " opportun": 4620,
    "roph": 4621,
    " backg": 4622,
    " ens": 4623,
    " Town": 4624,
    " kept</w>": 4625,
    " sense</w>": 4626,
    " riv": 4627,
    "rey</w>": 4628,
    "yes</w>": 4629,
    " relatively</w>": 4630,
    " sought</w>": 4631,
    " practice</w>": 4632,
    " follow</w>": 4633,
    " thro": 4634,
    " Ke": 4635,
    "isation</w>": 4636,
    "orm": 4637,
    " university</w>": 4638,
    "enge</w>": 4639,
    " featuring</w>": 4640,
    " mainly</w>": 4641,
    " rule</w>": 4642,
    " radi": 4643,
    "lem</w>": 4644,
    " pay</w>": 4645,
    " managed</w>": 4646,
    " concert</w>": 4647,
    " amb": 4648,
    " chief</w>": 4649,
    "eats</w>": 4650,
    " Bran": 4651,
    " studies</w>": 4652,
    " incorpor": 4653,
    "ough": 4654,
    " quest": 4655,
    " add": 4656,
    "yone</w>": 4657,
    " words</w>": 4658,
    " exped": 4659,
    " Series</w>": 4660,
    "echan": 4661,
    " true</w>": 4662,
    " enjoy": 4663,
    " titled</w>": 4664,
    "ders</w>": 4665,
    " primarily</w>": 4666,
    " cross</w>": 4667,
    " stop</w>": 4668,
    " look</w>": 4669,
    " Blue</w>": 4670,
    " prevent</w>": 4671,
    "uck</w>": 4672,
    " deep</w>": 4673,
    " emot": 4674,
    " promoted</w>": 4675,
    " pros": 4676,
    " cyclone</w>": 4677,
    " enemy</w>": 4678,
    " Since</w>": 4679,
    "ressive</w>": 4680,
    "+</w>": 4681,
    " cell</w>": 4682,
    "ega</w>": 4683,
    "onents</w>": 4684,
    "eful</w>": 4685,
    " Ap": 4686,
    " +</w>": 4687,
    " Don</w>": 4688,
    " mission</w>": 4689,
    " potential</w>": 4690,
    " Me</w>": 4691,
    " travel</w>": 4692,
    " onto</w>": 4693,
    " typically</w>": 4694,
    " bu": 4695,
    " compos": 4696,
    " walls</w>": 4697,
    " Captain</w>": 4698,
    " wa": 4699,
    " matter</w>": 4700,
    " Ob": 4701,
    " positions</w>": 4702,
    " appearances</w>": 4703,
    " civil": 4704,
    " hands</w>": 4705,
    " subm": 4706,
    " Act": 4707,
    "imed</w>": 4708,
    " husband</w>": 4709,
    "les": 4710,
    " armed</w>": 4711,
    "opped</w>": 4712,
    "emed</w>": 4713,
    " proved</w>": 4714,
    " specim": 4715,
    " Cla": 4716,
    " acting</w>": 4717,
    " ultimately</w>": 4718,
    " doub": 4719,
    " Sam": 4720,
    " strength</w>": 4721,
    " Hav": 4722,
    " Kor": 4723,
    " Colon": 4724,
    " job</w>": 4725,
    " Cra": 4726,
    " ge": 4727,
    " transl": 4728,
    " workers</w>": 4729,
    " morning</w>": 4730,
    " strateg": 4731,
    " univers": 4732,
    "ounts</w>": 4733,
    " recent</w>": 4734,
    " ris": 4735,
    " divided</w>": 4736,
    " piece</w>": 4737,
    "fer</w>": 4738,
    " direction</w>": 4739,
    "anders</w>": 4740,
    "uous</w>": 4741,
    " expressed</w>": 4742,
    " bill": 4743,
    " focus</w>": 4744,
    " transform": 4745,
    " Congress</w>": 4746,
    "ancy</w>": 4747,
    " Martin</w>": 4748,
    " Indiana</w>": 4749,
    " touchd": 4750,
    "osen</w>": 4751,
    " owned</w>": 4752,
    " paid</w>": 4753,
    " value</w>": 4754,
    " maximum</w>": 4755,
    " Sat": 4756,
    " shoo": 4757,
    " battlesh": 4758,
    " doll": 4759,
    " Hurricane</w>": 4760,
    " Rock</w>": 4761,
    " foot</w>": 4762,
    " reports</w>": 4763,
    "me</w>": 4764,
    " kg</w>": 4765,
    " culture</w>": 4766,
    " Little</w>": 4767,
    "etters</w>": 4768,
    " after": 4769,
    "iated</w>": 4770,
    " BC</w>": 4771,
    " want</w>": 4772,
    " cit": 4773,
    " Gard": 4774,
    " nuclear</w>": 4775,
    " sav": 4776,
    " Sn": 4777,
    "known</w>": 4778,
    " read</w>": 4779,
    " graph": 4780,
    " Americans</w>": 4781,
    "ipment</w>": 4782,
    "ysis</w>": 4783,
    " Ott": 4784,
    " grand": 4785,
    " 42</w>": 4786,
    " era</w>": 4787,
    "eces</w>": 4788,
    " summ": 4789,
    "ishment</w>": 4790,
    " naval</w>": 4791,
    " historical</w>": 4792,
    "retary</w>": 4793,
    " newspaper</w>": 4794,
    "kly</w>": 4795,
    " quarter</w>": 4796,
    " Parliament</w>": 4797,
    " couple</w>": 4798,
    " Constant": 4799,
    " content</w>": 4800,
    " Test</w>": 4801,
    " Ma": 4802,
    "ufact": 4803,
    " today</w>": 4804,
    " Victoria</w>": 4805,
    "iring</w>": 4806,
    "emat": 4807,
    "inking</w>": 4808,
    " fiction</w>": 4809,
    "unds</w>": 4810,
    "win</w>": 4811,
    " 1945</w>": 4812,
    " Cont": 4813,
    " Jim</w>": 4814,
    "erry</w>": 4815,
    " Football</w>": 4816,
    " log": 4817,
    "eness</w>": 4818,
    " heavily</w>": 4819,
    " artists</w>": 4820,
    " native</w>": 4821,
    " represented</w>": 4822,
    "When</w>": 4823,
    " pop</w>": 4824,
    "TV</w>": 4825,
    " alone</w>": 4826,
    " mis": 4827,
    " fall</w>": 4828,
    " Manchester</w>": 4829,
    "fect</w>": 4830,
    " Lenn": 4831,
    " portion</w>": 4832,
    " camp</w>": 4833,
    " grow": 4834,
    "ump</w>": 4835,
    " criticized</w>": 4836,
    "ipp": 4837,
    " Society</w>": 4838,
    " influenced</w>": 4839,
    " Card": 4840,
    " wing</w>": 4841,
    "bed</w>": 4842,
    "atures</w>": 4843,
    " reaching</w>": 4844,
    " visit</w>": 4845,
    "stein</w>": 4846,
    " spe": 4847,
    "ongside</w>": 4848,
    " DVD</w>": 4849,
    " mas": 4850,
    " coach</w>": 4851,
    "utr": 4852,
    "rough</w>": 4853,
    " c</w>": 4854,
    " Se": 4855,
    "ector</w>": 4856,
    " mess": 4857,
    " seasons</w>": 4858,
    " legal</w>": 4859,
    "ema</w>": 4860,
    " Jennings</w>": 4861,
    " rain": 4862,
    "ricult": 4863,
    " 180": 4864,
    "usion</w>": 4865,
    " passing</w>": 4866,
    " controvers": 4867,
    " say</w>": 4868,
    "essions</w>": 4869,
    " impact</w>": 4870,
    " Committee</w>": 4871,
    "iles</w>": 4872,
    " Sant": 4873,
    " Dutch</w>": 4874,
    "earing</w>": 4875,
    " Chris</w>": 4876,
    "onc</w>": 4877,
    "rant</w>": 4878,
    "actions</w>": 4879,
    " 1920</w>": 4880,
    "anger</w>": 4881,
    " wick": 4882,
    " follows</w>": 4883,
    " begin</w>": 4884,
    "icity</w>": 4885,
    "wide</w>": 4886,
    " dark</w>": 4887,
    " low": 4888,
    "ushed</w>": 4889,
    " contemporary</w>": 4890,
    " threat": 4891,
    "ipl": 4892,
    " La</w>": 4893,
    " narr": 4894,
    " actor</w>": 4895,
    " gained</w>": 4896,
    "acts</w>": 4897,
    "resp": 4898,
    " Sun</w>": 4899,
    " farm": 4900,
    " grew</w>": 4901,
    "izes</w>": 4902,
    "alling</w>": 4903,
    " wind</w>": 4904,
    " Ul": 4905,
    " maintained</w>": 4906,
    " hyd": 4907,
    " Boy": 4908,
    " Hon": 4909,
    " officially</w>": 4910,
    " develop</w>": 4911,
    "rie</w>": 4912,
    "bury</w>": 4913,
    "ervation</w>": 4914,
    " break</w>": 4915,
    " possibly</w>": 4916,
    " argued</w>": 4917,
    " tradition</w>": 4918,
    " describes</w>": 4919,
    "q</w>": 4920,
    " compar": 4921,
    " chosen</w>": 4922,
    "eline</w>": 4923,
    "burg</w>": 4924,
    " economic</w>": 4925,
    " Def": 4926,
    " imag": 4927,
    " lot</w>": 4928,
    " Arg": 4929,
    " Lew": 4930,
    "inct</w>": 4931,
    " except</w>": 4932,
    " meet</w>": 4933,
    " 1941</w>": 4934,
    " Boston</w>": 4935,
    "AA</w>": 4936,
    " recov": 4937,
    " cra": 4938,
    " Bor": 4939,
    " thick</w>": 4940,
    " conflict</w>": 4941,
    " oil</w>": 4942,
    " paper</w>": 4943,
    " Academy</w>": 4944,
    "while</w>": 4945,
    " Head": 4946,
    " Dom": 4947,
    " Civ": 4948,
    " sixth</w>": 4949,
    "pon</w>": 4950,
    "of</w>": 4951,
    " Pan": 4952,
    " vert": 4953,
    " Hum": 4954,
    " Commun": 4955,
    " exec": 4956,
    " premi": 4957,
    "ordan</w>": 4958,
    " sources</w>": 4959,
    "ustice</w>": 4960,
    " fight</w>": 4961,
    " benef": 4962,
    " scale</w>": 4963,
    " Ban": 4964,
    " kind</w>": 4965,
    "vement</w>": 4966,
    " Beyonc</w>": 4967,
    " lives</w>": 4968,
    "owledge</w>": 4969,
    " 1944</w>": 4970,
    " defense</w>": 4971,
    " adopted</w>": 4972,
    " sla": 4973,
    " colum": 4974,
    " advant": 4975,
    " capture</w>": 4976,
    " rh": 4977,
    " hospital</w>": 4978,
    " 37</w>": 4979,
    " explained</w>": 4980,
    " Bridge</w>": 4981,
    " charge</w>": 4982,
    "avalry</w>": 4983,
    " operated</w>": 4984,
    " Mr</w>": 4985,
    " broke</w>": 4986,
    " Sar": 4987,
    " animals</w>": 4988,
    " bring</w>": 4989,
    " Tour</w>": 4990,
    " no": 4991,
    " sound": 4992,
    " Home</w>": 4993,
    " mechan": 4994,
    " coming</w>": 4995,
    " Major</w>": 4996,
    " activities</w>": 4997,
    "tle</w>": 4998,
    " aired</w>": 4999,
    " Li": 5000,
    " common": 5001,
    " script</w>": 5002,
    " park</w>": 5003,
    " Service</w>": 5004,
    " advance</w>": 5005,
    " pilot</w>": 5006,
    " debuted</w>": 5007,
    " shortly</w>": 5008,
    " federal</w>": 5009,
    " authorities</w>": 5010,
    " property</w>": 5011,
    "ott</w>": 5012,
    " doing</w>": 5013,
    " instit": 5014,
    "tering</w>": 5015,
    " Den": 5016,
    "gan</w>": 5017,
    " Prince</w>": 5018,
    " Oxford</w>": 5019,
    " 47</w>": 5020,
    " Jones</w>": 5021,
    " says</w>": 5022,
    " 1986</w>": 5023,
    " toward</w>": 5024,
    " pul": 5025,
    " don</w>": 5026,
    " eg": 5027,
    " causing</w>": 5028,
    " image</w>": 5029,
    " blue</w>": 5030,
    " Hear": 5031,
    " entire": 5032,
    "osaurus</w>": 5033,
    "igning</w>": 5034,
    "writ": 5035,
    " Scott": 5036,
    " Os": 5037,
    " concent": 5038,
    " subsequent</w>": 5039,
    "BA</w>": 5040,
    " passes</w>": 5041,
    " cust": 5042,
    "olved</w>": 5043,
    " prominent</w>": 5044,
    "oming</w>": 5045,
    " 44</w>": 5046,
    " cases</w>": 5047,
    " Entert": 5048,
    " Jew": 5049,
    " freeway</w>": 5050,
    " Rhod": 5051,
    " combined</w>": 5052,
    " stone</w>": 5053,
    "mas</w>": 5054,
    " fol": 5055,
    "ini</w>": 5056,
    " leaders</w>": 5057,
    " confirmed</w>": 5058,
    "eon</w>": 5059,
    " ancient</w>": 5060,
    "get</w>": 5061,
    " winter</w>": 5062,
    " manufact": 5063,
    " twice</w>": 5064,
    " Port</w>": 5065,
    " flying</w>": 5066,
    " fully</w>": 5067,
    " feel</w>": 5068,
    " ir": 5069,
    " avoid</w>": 5070,
    " machine</w>": 5071,
    "ersey</w>": 5072,
    " Leg": 5073,
    " growth</w>": 5074,
    "ca</w>": 5075,
    "urs": 5076,
    " singles</w>": 5077,
    " 1942</w>": 5078,
    "itors</w>": 5079,
    " sust": 5080,
    " alongside</w>": 5081,
    " Conference</w>": 5082,
    "eering</w>": 5083,
    "key</w>": 5084,
    "asion</w>": 5085,
    " producers</w>": 5086,
    " Isra": 5087,
    " achieved</w>": 5088,
    "erland</w>": 5089,
    " Liv": 5090,
    "oint</w>": 5091,
    " webs": 5092,
    " Columb": 5093,
    " homes</w>": 5094,
    " He": 5095,
    " overs": 5096,
    "bs</w>": 5097,
    " question</w>": 5098,
    " albums</w>": 5099,
    " ri": 5100,
    " alt": 5101,
    " favor": 5102,
    " eas": 5103,
    " screen</w>": 5104,
    "esh</w>": 5105,
    " restr": 5106,
    " tax": 5107,
    " senior</w>": 5108,
    " Harrison</w>": 5109,
    " bird</w>": 5110,
    "illery</w>": 5111,
    " your</w>": 5112,
    " care</w>": 5113,
    " ut": 5114,
    " unknown</w>": 5115,
    " setting</w>": 5116,
    "anes</w>": 5117,
    " growing</w>": 5118,
    " Soviet</w>": 5119,
    " weapons</w>": 5120,
    " letters</w>": 5121,
    " 49</w>": 5122,
    " seconds</w>": 5123,
    " expans": 5124,
    "80</w>": 5125,
    " weight</w>": 5126,
    "ps</w>": 5127,
    " background</w>": 5128,
    " chor": 5129,
    " passeng": 5130,
    " negative</w>": 5131,
    " birth</w>": 5132,
    " Lu": 5133,
    " roles</w>": 5134,
    " twel": 5135,
    " 600</w>": 5136,
    " selling</w>": 5137,
    " headquarters</w>": 5138,
    " simply</w>": 5139,
    " Infantry</w>": 5140,
    "eter": 5141,
    " injury</w>": 5142,
    "iling</w>": 5143,
    " share</w>": 5144,
    " independent</w>": 5145,
    " dyn": 5146,
    " frequently</w>": 5147,
    " Youn": 5148,
    "itz": 5149,
    "rest": 5150,
    "iced</w>": 5151,
    " brief": 5152,
    "add": 5153,
    " Jam": 5154,
    " join</w>": 5155,
    " comedy</w>": 5156,
    " stations</w>": 5157,
    "ulf": 5158,
    " ox": 5159,
    " interc": 5160,
    " ahead</w>": 5161,
    " Rhodes": 5162,
    " attrib": 5163,
    "antasy</w>": 5164,
    " unp": 5165,
    " reinfor": 5166,
    " Over</w>": 5167,
    " border</w>": 5168,
    " News</w>": 5169,
    " bodies</w>": 5170,
    "amp</w>": 5171,
    " Mul": 5172,
    " pip": 5173,
    " Dire": 5174,
    " prin": 5175,
    " Syst": 5176,
    " identified</w>": 5177,
    " Because</w>": 5178,
    "ument</w>": 5179,
    " trees</w>": 5180,
    " Olympic</w>": 5181,
    " Brad": 5182,
    " executive</w>": 5183,
    " basis</w>": 5184,
    " dropped</w>": 5185,
    " student</w>": 5186,
    "eys</w>": 5187,
    " extr": 5188,
    "adium</w>": 5189,
    " Distr": 5190,
    "inal</w>": 5191,
    " fres": 5192,
    " northeast</w>": 5193,
    " convers": 5194,
    " 41</w>": 5195,
    " results</w>": 5196,
    "agn": 5197,
    " laid</w>": 5198,
    " historian</w>": 5199,
    " occur</w>": 5200,
    "enture</w>": 5201,
    " Law": 5202,
    " nation</w>": 5203,
    "ther": 5204,
    "icient</w>": 5205,
    " tells</w>": 5206,
    " foun": 5207,
    " physical</w>": 5208,
    "ingham</w>": 5209,
    " perform</w>": 5210,
    " lay": 5211,
    " serious</w>": 5212,
    "town</w>": 5213,
    " visited</w>": 5214,
    "utions</w>": 5215,
    " individuals</w>": 5216,
    " captain</w>": 5217,
    " organization</w>": 5218,
    " break": 5219,
    " Var": 5220,
    "ugh</w>": 5221,
    "Although</w>": 5222,
    "uled</w>": 5223,
    " Nations</w>": 5224,
    "ab</w>": 5225,
    "ading</w>": 5226,
    " surrounding</w>": 5227,
    " eye</w>": 5228,
    "och": 5229,
    " negot": 5230,
    " inch</w>": 5231,
    "10</w>": 5232,
    " places</w>": 5233,
    "igation</w>": 5234,
    "By</w>": 5235,
    "rance</w>": 5236,
    " mol": 5237,
    "70</w>": 5238,
    " Kenn": 5239,
    " increasing</w>": 5240,
    " weather</w>": 5241,
    "tains</w>": 5242,
    " nominated</w>": 5243,
    "ilies</w>": 5244,
    " abandoned</w>": 5245,
    "rical</w>": 5246,
    " agg": 5247,
    " oppos": 5248,
    " Temp": 5249,
    " Eastern</w>": 5250,
    " college</w>": 5251,
    " powers</w>": 5252,
    " Op": 5253,
    " emphas": 5254,
    " claim</w>": 5255,
    " stay</w>": 5256,
    " opposed</w>": 5257,
    "oll</w>": 5258,
    "otic</w>": 5259,
    " systems</w>": 5260,
    " author</w>": 5261,
    "ison": 5262,
    " resc": 5263,
    " Cur": 5264,
    " big</w>": 5265,
    " silver</w>": 5266,
    "iate</w>": 5267,
    " regarded</w>": 5268,
    " formation</w>": 5269,
    "yline</w>": 5270,
    " Row": 5271,
    "itable</w>": 5272,
    "arked</w>": 5273,
    "oul</w>": 5274,
    " retired</w>": 5275,
    " Moore</w>": 5276,
    " serving</w>": 5277,
    "hood</w>": 5278,
    " Entertainment</w>": 5279,
    "There</w>": 5280,
    " sens": 5281,
    " Prot": 5282,
    " Dr</w>": 5283,
    " seg": 5284,
    " District</w>": 5285,
    " Lar": 5286,
    " Barb": 5287,
    " ban": 5288,
    " bey": 5289,
    " beyond</w>": 5290,
    " Nic": 5291,
    " administration</w>": 5292,
    "acement</w>": 5293,
    " BBC</w>": 5294,
    " Missou": 5295,
    " Lennon</w>": 5296,
    " granted</w>": 5297,
    " authority</w>": 5298,
    " equipment</w>": 5299,
    " spring</w>": 5300,
    " inhab": 5301,
    "uck": 5302,
    "ealing</w>": 5303,
    "mann</w>": 5304,
    " rare</w>": 5305,
    "track</w>": 5306,
    " hip</w>": 5307,
    " parall": 5308,
    "itz</w>": 5309,
    " Sa": 5310,
    " contained</w>": 5311,
    " categ": 5312,
    " reign</w>": 5313,
    "aby</w>": 5314,
    " Manning</w>": 5315,
    " gar": 5316,
    "haps</w>": 5317,
    " comes</w>": 5318,
    " management</w>": 5319,
    " 150</w>": 5320,
    " disease</w>": 5321,
    "ction</w>": 5322,
    " mentioned</w>": 5323,
    " bank</w>": 5324,
    " al</w>": 5325,
    " reference</w>": 5326,
    " orders</w>": 5327,
    " Governor</w>": 5328,
    " district</w>": 5329,
    "lusion</w>": 5330,
    " participated</w>": 5331,
    "tronom": 5332,
    "ologist</w>": 5333,
    " guest</w>": 5334,
    "ishop</w>": 5335,
    " Fox</w>": 5336,
    " Missouri</w>": 5337,
    " engine</w>": 5338,
    " reason</w>": 5339,
    " Mem": 5340,
    " governor</w>": 5341,
    "ura</w>": 5342,
    " Super</w>": 5343,
    "ola</w>": 5344,
    " exam": 5345,
    "tw": 5346,
    " Wel": 5347,
    "dered</w>": 5348,
    " color</w>": 5349,
    " returning</w>": 5350,
    " wind": 5351,
    "ek": 5352,
    "yers</w>": 5353,
    " slow</w>": 5354,
    " Sund": 5355,
    " Carey</w>": 5356,
    " Bill</w>": 5357,
    "ondary</w>": 5358,
    "ider</w>": 5359,
    " Bus": 5360,
    " Jordan</w>": 5361,
    " faced</w>": 5362,
    " versions</w>": 5363,
    " affected</w>": 5364,
    "las</w>": 5365,
    " news</w>": 5366,
    " Black": 5367,
    "alties</w>": 5368,
    "ubs</w>": 5369,
    " pic": 5370,
    " integ": 5371,
    " 1939</w>": 5372,
    " Att": 5373,
    " Hero</w>": 5374,
    " newly</w>": 5375,
    "etry</w>": 5376,
    "urch": 5377,
    " choice</w>": 5378,
    "eller</w>": 5379,
    " Steph": 5380,
    "ucc": 5381,
    " pu": 5382,
    " Bat": 5383,
    "don</w>": 5384,
    "right</w>": 5385,
    " foreign</w>": 5386,
    " consisted</w>": 5387,
    "iful</w>": 5388,
    "nes": 5389,
    "utation</w>": 5390,
    " fa": 5391,
    " theory</w>": 5392,
    " compla": 5393,
    " Lewis</w>": 5394,
    " samp": 5395,
    "ube</w>": 5396,
    " Spok": 5397,
    "ocked</w>": 5398,
    " heart</w>": 5399,
    "gu": 5400,
    " degree</w>": 5401,
    "ici": 5402,
    " 34</w>": 5403,
    " leg</w>": 5404,
    "ocated</w>": 5405,
    "row": 5406,
    " Chief</w>": 5407,
    " 39</w>": 5408,
    "gh</w>": 5409,
    "eston</w>": 5410,
    " Ven": 5411,
    " Film</w>": 5412,
    " Middle</w>": 5413,
    " const": 5414,
    " Ash": 5415,
    " claims</w>": 5416,
    "ibb": 5417,
    "alism</w>": 5418,
    "uting</w>": 5419,
    " Avenue</w>": 5420,
    " challeng": 5421,
    " brown</w>": 5422,
    " contrast</w>": 5423,
    " royal</w>": 5424,
    " Sil": 5425,
    " serve</w>": 5426,
    " problem</w>": 5427,
    " Government</w>": 5428,
    "erself</w>": 5429,
    " N</w>": 5430,
    " offer</w>": 5431,
    "isters</w>": 5432,
    "ivity</w>": 5433,
    " structures</w>": 5434,
    " Duke</w>": 5435,
    " unique</w>": 5436,
    " herself</w>": 5437,
    " Gir": 5438,
    " 1987</w>": 5439,
    "alent</w>": 5440,
    " drama</w>": 5441,
    " championship</w>": 5442,
    " And</w>": 5443,
    " Catholic</w>": 5444,
    " hard": 5445,
    " invasion</w>": 5446,
    " bud": 5447,
    " domest": 5448,
    " wher": 5449,
    "eet</w>": 5450,
    " funct": 5451,
    " receive</w>": 5452,
    " Studios</w>": 5453,
    " 1914</w>": 5454,
    " cannot</w>": 5455,
    " Dre": 5456,
    " Stone</w>": 5457,
    " cong": 5458,
    " Senate</w>": 5459,
    " awards</w>": 5460,
    "iant</w>": 5461,
    " Ga": 5462,
    " pet": 5463,
    " cricket</w>": 5464,
    " recently</w>": 5465,
    " Though</w>": 5466,
    " critic</w>": 5467,
    " sac": 5468,
    " bott": 5469,
    "ender</w>": 5470,
    "istant</w>": 5471,
    " represent": 5472,
    " Georg": 5473,
    "ulate</w>": 5474,
    " cells</w>": 5475,
    " Italy</w>": 5476,
    " advert": 5477,
    " opin": 5478,
    "90</w>": 5479,
    "uate</w>": 5480,
    "ulty</w>": 5481,
    " Art": 5482,
    " display": 5483,
    "istics</w>": 5484,
    "ella</w>": 5485,
    " height</w>": 5486,
    " billion</w>": 5487,
    " symp": 5488,
    " did": 5489,
    "urban</w>": 5490,
    "iation</w>": 5491,
    "umes</w>": 5492,
    " 1989</w>": 5493,
    " Dev": 5494,
    " chose</w>": 5495,
    " sets</w>": 5496,
    "war": 5497,
    " train</w>": 5498,
    "X</w>": 5499,
    " bacter": 5500,
    "alists</w>": 5501,
    " illustr": 5502,
    " necessary</w>": 5503,
    " 1988</w>": 5504,
    " consecutive</w>": 5505,
    " Scottish</w>": 5506,
    " e</w>": 5507,
    " found": 5508,
    "ager</w>": 5509,
    " explos": 5510,
    " Dra": 5511,
    "lo</w>": 5512,
    " friend": 5513,
    " rejected</w>": 5514,
    " Civil</w>": 5515,
    "eur</w>": 5516,
    " foot": 5517,
    "isf": 5518,
    " Admir": 5519,
    " rom": 5520,
    " search</w>": 5521,
    " stand</w>": 5522,
    " arrival</w>": 5523,
    "hi</w>": 5524,
    "evelop": 5525,
    " citiz": 5526,
    " draw</w>": 5527,
    " recognized</w>": 5528,
    " HMS</w>": 5529,
    " Ocean</w>": 5530,
    " Ut": 5531,
    " Cambridge</w>": 5532,
    " Vietnam": 5533,
    " types</w>": 5534,
    " website</w>": 5535,
    "eph</w>": 5536,
    "ldwide</w>": 5537,
    " famous</w>": 5538,
    " mile</w>": 5539,
    " surpr": 5540,
    " cities</w>": 5541,
    " titles</w>": 5542,
    " advantage</w>": 5543,
    " knowledge</w>": 5544,
    " don": 5545,
    "Following</w>": 5546,
    " Louis</w>": 5547,
    "ray</w>": 5548,
    " shape</w>": 5549,
    " tru": 5550,
    " architect": 5551,
    " effective</w>": 5552,
    " rough": 5553,
    " Lev": 5554,
    " Democr": 5555,
    "St": 5556,
    " Williams</w>": 5557,
    " Olympics</w>": 5558,
    " 95</w>": 5559,
    " agreement</w>": 5560,
    " enl": 5561,
    " Green": 5562,
    " controlled</w>": 5563,
    " civil</w>": 5564,
    " Live</w>": 5565,
    "iders</w>": 5566,
    " mic": 5567,
    " obj": 5568,
    " Castro</w>": 5569,
    " here</w>": 5570,
    " drive</w>": 5571,
    "ao</w>": 5572,
    " commonly</w>": 5573,
    " tim": 5574,
    " perman": 5575,
    " arms</w>": 5576,
    " spread</w>": 5577,
    "iments</w>": 5578,
    " families</w>": 5579,
    "ifying</w>": 5580,
    " Det": 5581,
    " 48</w>": 5582,
    " Charl": 5583,
    " Des": 5584,
    " tex": 5585,
    "igence</w>": 5586,
    " Spain</w>": 5587,
    " Homer</w>": 5588,
    " Vietnamese</w>": 5589,
    " Spec": 5590,
    "itch</w>": 5591,
    " mys": 5592,
    "adel": 5593,
    " Histor": 5594,
    " Pen": 5595,
    " escape</w>": 5596,
    "inson</w>": 5597,
    " didn</w>": 5598,
    " Ross</w>": 5599,
    " acad": 5600,
    " rainfall</w>": 5601,
    " volunt": 5602,
    " creating</w>": 5603,
    " coo": 5604,
    "icial</w>": 5605,
    " extensive</w>": 5606,
    " determined</w>": 5607,
    " floor</w>": 5608,
    "ties</w>": 5609,
    " Several</w>": 5610,
    " law": 5611,
    " movie</w>": 5612,
    " function</w>": 5613,
    " murder</w>": 5614,
    " transport</w>": 5615,
    "range</w>": 5616,
    " pieces</w>": 5617,
    " sle": 5618,
    "unction</w>": 5619,
    " treatment</w>": 5620,
    " cultural</w>": 5621,
    "ien</w>": 5622,
    "room</w>": 5623,
    " breeding</w>": 5624,
    " therefore</w>": 5625,
    " 1985</w>": 5626,
    " househ": 5627,
    " leaves</w>": 5628,
    " losing</w>": 5629,
    "asingly</w>": 5630,
    " actors</w>": 5631,
    "stream</w>": 5632,
    " Vol": 5633,
    "active</w>": 5634,
    " ce": 5635,
    " Dor": 5636,
    " organized</w>": 5637,
    " closely</w>": 5638,
    " System</w>": 5639,
    " 1964</w>": 5640,
    " ideas</w>": 5641,
    " Line</w>": 5642,
    " Bowl</w>": 5643,
    " Kr": 5644,
    "−</w>": 5645,
    "ria</w>": 5646,
    "acity</w>": 5647,
    " promp": 5648,
    "osp": 5649,
    " ends</w>": 5650,
    " believe</w>": 5651,
    "anwhile</w>": 5652,
    " agricult": 5653,
    " nation": 5654,
    " nothing</w>": 5655,
    " Bul": 5656,
    "eeler</w>": 5657,
    "ahir</w>": 5658,
    " Out": 5659,
    " dedicated</w>": 5660,
    "inging</w>": 5661,
    " trying</w>": 5662,
    " highl": 5663,
    " seventh</w>": 5664,
    " medical</w>": 5665,
    " provides</w>": 5666,
    " Theat": 5667,
    "anda</w>": 5668,
    " campus</w>": 5669,
    " expanded</w>": 5670,
    " fought</w>": 5671,
    " corresp": 5672,
    " Wood": 5673,
    " 1984</w>": 5674,
    " Fleet</w>": 5675,
    " calls</w>": 5676,
    "bit</w>": 5677,
    " containing</w>": 5678,
    " Jud": 5679,
    " Russian</w>": 5680,
    " interchange</w>": 5681,
    "rying</w>": 5682,
    " fellow</w>": 5683,
    " Joseph</w>": 5684,
    " broken</w>": 5685,
    " suggests</w>": 5686,
    " wounded</w>": 5687,
    "ala</w>": 5688,
    " failure</w>": 5689,
    " Far": 5690,
    " Mel": 5691,
    " mart": 5692,
    " Po": 5693,
    " soundtrack</w>": 5694,
    " El</w>": 5695,
    " roads</w>": 5696,
    " −</w>": 5697,
    "essee</w>": 5698,
    " peace</w>": 5699,
    " Board</w>": 5700,
    " briefly</w>": 5701,
    " soci": 5702,
    " coast": 5703,
    "onent</w>": 5704,
    " roughly</w>": 5705,
    " policy</w>": 5706,
    " solo</w>": 5707,
    " Jewish</w>": 5708,
    " mark": 5709,
    " Belg": 5710,
    "azep": 5711,
    "Station</w>": 5712,
    " vo": 5713,
    " text</w>": 5714,
    " Tro": 5715,
    " list": 5716,
    "phia</w>": 5717,
    " 1916</w>": 5718,
    "anner</w>": 5719,
    "elle</w>": 5720,
    " test</w>": 5721,
    " boat</w>": 5722,
    " gain</w>": 5723,
    " increasingly</w>": 5724,
    " cab": 5725,
    " Town</w>": 5726,
    " Republican</w>": 5727,
    " blood</w>": 5728,
    " Jer": 5729,
    " Valley</w>": 5730,
    " viewed</w>": 5731,
    " Tropical</w>": 5732,
    " supply</w>": 5733,
    "adelphia</w>": 5734,
    " evac": 5735,
    " FI": 5736,
    " tail</w>": 5737,
    " commissioned</w>": 5738,
    "istence</w>": 5739,
    " looking</w>": 5740,
    " dance</w>": 5741,
    " frag": 5742,
    " psych": 5743,
    " 43</w>": 5744,
    " killing</w>": 5745,
    "athan</w>": 5746,
    " incident</w>": 5747,
    "ketball</w>": 5748,
    "BS</w>": 5749,
    "erpool</w>": 5750,
    " fran": 5751,
    "ishes</w>": 5752,
    " synth": 5753,
    "intend": 5754,
    " Doug": 5755,
    "oses</w>": 5756,
    " threat</w>": 5757,
    " Holl": 5758,
    " creation</w>": 5759,
    "asty</w>": 5760,
    " pict": 5761,
    " display</w>": 5762,
    "ec</w>": 5763,
    " UN</w>": 5764,
    " Assembly</w>": 5765,
    " hop</w>": 5766,
    " Stew": 5767,
    " Us": 5768,
    " themes</w>": 5769,
    "idly</w>": 5770,
    "ancing</w>": 5771,
    " Fri": 5772,
    " fired</w>": 5773,
    " calc": 5774,
    " Of</w>": 5775,
    " fat": 5776,
    " projects</w>": 5777,
    " adult</w>": 5778,
    "acher</w>": 5779,
    " defined</w>": 5780,
    " Dun": 5781,
    " Tennessee</w>": 5782,
    " Lady</w>": 5783,
    "ardine</w>": 5784,
    "oing</w>": 5785,
    "burgh</w>": 5786,
    " declined</w>": 5787,
    " PlayStation</w>": 5788,
    " Chap": 5789,
    "isers</w>": 5790,
    " Christmas</w>": 5791,
    " expansion</w>": 5792,
    " carry</w>": 5793,
    " unus": 5794,
    "orters</w>": 5795,
    " Spokane</w>": 5796,
    "alized</w>": 5797,
    "resses</w>": 5798,
    " article</w>": 5799,
    " simple</w>": 5800,
    " aid</w>": 5801,
    " bul": 5802,
    " acquired</w>": 5803,
    " habit": 5804,
    "set</w>": 5805,
    " Mike</w>": 5806,
    " Croatia</w>": 5807,
    " entirely</w>": 5808,
    " Liverpool</w>": 5809,
    " Im": 5810,
    "ches": 5811,
    "ta</w>": 5812,
    " publication</w>": 5813,
    "ov</w>": 5814,
    " 64</w>": 5815,
    " conference</w>": 5816,
    " seat</w>": 5817,
    " twelve</w>": 5818,
    "erly</w>": 5819,
    " We": 5820,
    " arres": 5821,
    " Young</w>": 5822,
    "thur</w>": 5823,
    " girl</w>": 5824,
    " torpedo</w>": 5825,
    " gives</w>": 5826,
    " Stra": 5827,
    " Early</w>": 5828,
    " animal</w>": 5829,
    " Ari": 5830,
    " sites</w>": 5831,
    " branch</w>": 5832,
    " Mov": 5833,
    " piano</w>": 5834,
    " flooding</w>": 5835,
    " hits</w>": 5836,
    " Each</w>": 5837,
    "rest</w>": 5838,
    " security</w>": 5839,
    " successfully</w>": 5840,
    " artillery</w>": 5841,
    " literature</w>": 5842,
    "rin": 5843,
    " worldwide</w>": 5844,
    " Bob</w>": 5845,
    " 800</w>": 5846,
    "TC</w>": 5847,
    " contact</w>": 5848,
    " Serb": 5849,
    " resemb": 5850,
    " counter": 5851,
    " hundred</w>": 5852,
    "onna</w>": 5853,
    "inger</w>": 5854,
    " archae": 5855,
    " Harry</w>": 5856,
    " Montana</w>": 5857,
    " upgra": 5858,
    " heard</w>": 5859,
    " data</w>": 5860,
    "utting</w>": 5861,
    " bill</w>": 5862,
    " males</w>": 5863,
    " 65</w>": 5864,
    " Philadelphia</w>": 5865,
    " What</w>": 5866,
    "erd": 5867,
    " death": 5868,
    " beaut": 5869,
    "eplay</w>": 5870,
    "itled</w>": 5871,
    "using</w>": 5872,
    " post": 5873,
    "iers</w>": 5874,
    "ief": 5875,
    " Hung": 5876,
    " humans</w>": 5877,
    " distingu": 5878,
    " defin": 5879,
    "eating</w>": 5880,
    " encoura": 5881,
    " fict": 5882,
    " contributed</w>": 5883,
    " Theatre</w>": 5884,
    " quite</w>": 5885,
    " obt": 5886,
    "itter</w>": 5887,
    " 178": 5888,
    " Anderson</w>": 5889,
    " box</w>": 5890,
    " secondary</w>": 5891,
    "espread</w>": 5892,
    " motion</w>": 5893,
    " Journ": 5894,
    "enon</w>": 5895,
    "yz": 5896,
    " purpose</w>": 5897,
    "ioning</w>": 5898,
    " 1915</w>": 5899,
    " kill</w>": 5900,
    " 700</w>": 5901,
    " Direct": 5902,
    " filmed</w>": 5903,
    "iences</w>": 5904,
    " Vietnam</w>": 5905,
    "apore</w>": 5906,
    " Ret": 5907,
    " condition</w>": 5908,
    "ustrial</w>": 5909,
    " draft</w>": 5910,
    " thing</w>": 5911,
    " advanced</w>": 5912,
    " existing</w>": 5913,
    "err": 5914,
    " cited</w>": 5915,
    " landing</w>": 5916,
    "stone</w>": 5917,
    " launch</w>": 5918,
    " Festival</w>": 5919,
    "oom</w>": 5920,
    " Conf": 5921,
    " 23": 5922,
    " earliest</w>": 5923,
    " Heb": 5924,
    " street</w>": 5925,
    "iously</w>": 5926,
    " hyp": 5927,
    " dismiss": 5928,
    " experienced</w>": 5929,
    " Coo": 5930,
    " forest</w>": 5931,
    " editor</w>": 5932,
    "*</w>": 5933,
    " request</w>": 5934,
    "ront": 5935,
    " starts</w>": 5936,
    "imet": 5937,
    " Polish</w>": 5938,
    " expedition</w>": 5939,
    " champ": 5940,
    "RA</w>": 5941,
    " save</w>": 5942,
    " standing</w>": 5943,
    " volume</w>": 5944,
    "aph": 5945,
    " Shak": 5946,
    " centuries</w>": 5947,
    "aves</w>": 5948,
    " element</w>": 5949,
    "ules</w>": 5950,
    " opposition</w>": 5951,
    "la</w>": 5952,
    "J</w>": 5953,
    " temperature</w>": 5954,
    " computer</w>": 5955,
    "da</w>": 5956,
    " agent</w>": 5957,
    " Pre": 5958,
    " committee</w>": 5959,
    " daily</w>": 5960,
    " offensive</w>": 5961,
    "arch": 5962,
    " towns</w>": 5963,
    " Colonel</w>": 5964,
    " mountain</w>": 5965,
    " arrang": 5966,
    " Ottoman</w>": 5967,
    " Zahir</w>": 5968,
    " Like</w>": 5969,
    " improved</w>": 5970,
    "eived</w>": 5971,
    " rac": 5972,
    " 1918</w>": 5973,
    " 51</w>": 5974,
    " Mod": 5975,
    " baseball</w>": 5976,
    " Egypt": 5977,
    " filled</w>": 5978,
    " kilometres</w>": 5979,
    " settlement</w>": 5980,
    " northwest</w>": 5981,
    " perhaps</w>": 5982,
    " beat</w>": 5983,
    " females</w>": 5984,
    " analysis</w>": 5985,
    "cing</w>": 5986,
    " supporting</w>": 5987,
    " Secretary</w>": 5988,
    "itual</w>": 5989,
    " Don": 5990,
    " Rock": 5991,
    " Once</w>": 5992,
    "iva</w>": 5993,
    " Bla": 5994,
    " Miami</w>": 5995,
    " intensity</w>": 5996,
    "yphoon</w>": 5997,
    "inity</w>": 5998,
    " purchased</w>": 5999,
    " sexual</w>": 6000,
    " performing</w>": 6001,
    "apers</w>": 6002,
    " Tam": 6003,
    " rise</w>": 6004,
    " hair</w>": 6005,
    " buried</w>": 6006,
    "house</w>": 6007,
    " Constantine</w>": 6008,
    "ordon</w>": 6009,
    " Ern": 6010,
    " b</w>": 6011,
    " Singapore</w>": 6012,
    "uilding</w>": 6013,
    " budget</w>": 6014,
    " deploy": 6015,
    "tive</w>": 6016,
    "ighth</w>": 6017,
    " locations</w>": 6018,
    " currently</w>": 6019,
    " Rog": 6020,
    " Airport</w>": 6021,
    "ashed</w>": 6022,
    "abeth</w>": 6023,
    "inton</w>": 6024,
    " Mount</w>": 6025,
    " programs</w>": 6026,
    " digital</w>": 6027,
    " losses</w>": 6028,
    " Douglas</w>": 6029,
    " surren": 6030,
    "eared</w>": 6031,
    "wick</w>": 6032,
    " drawn</w>": 6033,
    "itan</w>": 6034,
    "inary</w>": 6035,
    " singing</w>": 6036,
    " facilities</w>": 6037,
    " accompanied</w>": 6038,
    " strike</w>": 6039,
    " Coll": 6040,
    " Just</w>": 6041,
    " induc": 6042,
    " Eliz": 6043,
    " speech</w>": 6044,
    "erth": 6045,
    " details</w>": 6046,
    " charts</w>": 6047,
    " old": 6048,
    " was": 6049,
    " descrip": 6050,
    "While</w>": 6051,
    " connected</w>": 6052,
    " 1972</w>": 6053,
    " severe</w>": 6054,
    " railway</w>": 6055,
    " finds</w>": 6056,
    " missions</w>": 6057,
    " goes</w>": 6058,
    " vehicles</w>": 6059,
    " Light</w>": 6060,
    "ei</w>": 6061,
    " technology</w>": 6062,
    " 1943</w>": 6063,
    " 1968</w>": 6064,
    " Ath": 6065,
    " Joe</w>": 6066,
    "ywood</w>": 6067,
    " Ka": 6068,
    " brief</w>": 6069,
    " Coast</w>": 6070,
    "oud</w>": 6071,
    " boats</w>": 6072,
    " colle": 6073,
    "mental</w>": 6074,
    " providing</w>": 6075,
    "lab": 6076,
    " Mill": 6077,
    " 55</w>": 6078,
    "rence</w>": 6079,
    " 46</w>": 6080,
    " green</w>": 6081,
    "ogen": 6082,
    " prey</w>": 6083,
    " mob": 6084,
    " protected</w>": 6085,
    "ika</w>": 6086,
    " reputation</w>": 6087,
    " contain</w>": 6088,
    " widespread</w>": 6089,
    " yellow</w>": 6090,
    "agg": 6091,
    " anything</w>": 6092,
    "iday</w>": 6093,
    " Office</w>": 6094,
    " NBA</w>": 6095,
    " Prime</w>": 6096,
    " Institute</w>": 6097,
    " comic</w>": 6098,
    "outs</w>": 6099,
    " Hind": 6100,
    " responded</w>": 6101,
    " employed</w>": 6102,
    " Le</w>": 6103,
    "ua</w>": 6104,
    " 52</w>": 6105,
    " occupied</w>": 6106,
    " Moh": 6107,
    " presid": 6108,
    " Mir": 6109,
    " musc": 6110,
    " NA": 6111,
    " wolves</w>": 6112,
    " Om": 6113,
    " deaths</w>": 6114,
    "ults</w>": 6115,
    " mist": 6116,
    " try</w>": 6117,
    " fruit</w>": 6118,
    " Commission</w>": 6119,
    " Press</w>": 6120,
    " edge</w>": 6121,
    " seems</w>": 6122,
    " decre": 6123,
    " younger</w>": 6124,
    " Mary": 6125,
    " gameplay</w>": 6126,
    "ji</w>": 6127,
    " prepared</w>": 6128,
    " Mur": 6129,
    "mosph": 6130,
    " producing</w>": 6131,
    "iration</w>": 6132,
    "rent</w>": 6133,
    " shooting</w>": 6134,
    " Jac": 6135,
    "standing</w>": 6136,
    " Jun": 6137,
    " Super": 6138,
    " Ann": 6139,
    "edral</w>": 6140,
    " Jardine</w>": 6141,
    " tact": 6142,
    "olutionary</w>": 6143,
    " oldest</w>": 6144,
    "mark</w>": 6145,
    " receiving</w>": 6146,
    " elimin": 6147,
    "According</w>": 6148,
    " drew</w>": 6149,
    "break</w>": 6150,
    "eals</w>": 6151,
    "ifically</w>": 6152,
    " products</w>": 6153,
    " ceremony</w>": 6154,
    " undert": 6155,
    " Bern": 6156,
    "orate</w>": 6157,
    " mid": 6158,
    " Scott</w>": 6159,
    " Swed": 6160,
    " fash": 6161,
    " risk</w>": 6162,
    "ulp": 6163,
    " 177": 6164,
    " Bois</w>": 6165,
    " entrance</w>": 6166,
    " Ever": 6167,
    " host</w>": 6168,
    " Ur": 6169,
    "95</w>": 6170,
    " Dest": 6171,
    " casu": 6172,
    " *</w>": 6173,
    " Steve</w>": 6174,
    " sports</w>": 6175,
    " Du</w>": 6176,
    " importance</w>": 6177,
    " isol": 6178,
    " collected</w>": 6179,
    " engaged</w>": 6180,
    "ortation</w>": 6181,
    " Writ": 6182,
    "zy</w>": 6183,
    " wave</w>": 6184,
    " medal</w>": 6185,
    "isms</w>": 6186,
    "owers</w>": 6187,
    "uge</w>": 6188,
    " phil": 6189,
    " straight</w>": 6190,
    " sign</w>": 6191,
    " significantly</w>": 6192,
    "erns</w>": 6193,
    " dre": 6194,
    " dram": 6195,
    " allows</w>": 6196,
    "essing</w>": 6197,
    " motor": 6198,
    " Drag": 6199,
    " survived</w>": 6200,
    " notable</w>": 6201,
    "ja</w>": 6202,
    "enden</w>": 6203,
    " fort</w>": 6204,
    " Champ": 6205,
    " Imperial</w>": 6206,
    "ols</w>": 6207,
    " hired</w>": 6208,
    "ographic</w>": 6209,
    " sex</w>": 6210,
    " 1971</w>": 6211,
    " interv": 6212,
    "etts</w>": 6213,
    "unt</w>": 6214,
    "yon</w>": 6215,
    " Scully</w>": 6216,
    " capacity</w>": 6217,
    " conqu": 6218,
    " shaped</w>": 6219,
    " NH": 6220,
    "ias</w>": 6221,
    " Before</w>": 6222,
    " merch": 6223,
    " host": 6224,
    " Princ": 6225,
    "asure</w>": 6226,
    " crime</w>": 6227,
    "An": 6228,
    " regions</w>": 6229,
    " Argent": 6230,
    " safety</w>": 6231,
    "lines</w>": 6232,
    " lov": 6233,
    " 1969</w>": 6234,
    "isher</w>": 6235,
    " substant": 6236,
    "edom</w>": 6237,
    " caught</w>": 6238,
    "ortly</w>": 6239,
    "icks</w>": 6240,
    "ifications</w>": 6241,
    " fix": 6242,
    " vocal</w>": 6243,
    " scheduled</w>": 6244,
    " 1956</w>": 6245,
    " fuel</w>": 6246,
    "iege</w>": 6247,
    " writes</w>": 6248,
    " SA": 6249,
    "aka</w>": 6250,
    " Storm</w>": 6251,
    " SR</w>": 6252,
    " gradually</w>": 6253,
    "onym": 6254,
    " recru": 6255,
    "orney</w>": 6256,
    " Walter</w>": 6257,
    " admitted</w>": 6258,
    " consists</w>": 6259,
    " finish</w>": 6260,
    "oen": 6261,
    " wr": 6262,
    " images</w>": 6263,
    "stead</w>": 6264,
    " showing</w>": 6265,
    " learned</w>": 6266,
    " Zh": 6267,
    " turns</w>": 6268,
    " visual</w>": 6269,
    " People</w>": 6270,
    " exclus": 6271,
    " enjoyed</w>": 6272,
    " 1946</w>": 6273,
    " opportunity</w>": 6274,
    " diam": 6275,
    " n</w>": 6276,
    " enter</w>": 6277,
    "erts</w>": 6278,
    " regarding</w>": 6279,
    "eme</w>": 6280,
    " sections</w>": 6281,
    "eton</w>": 6282,
    " Prem": 6283,
    " Old": 6284,
    "GN</w>": 6285,
    " 1973</w>": 6286,
    " eyes</w>": 6287,
    " headed</w>": 6288,
    " prepar": 6289,
    " why</w>": 6290,
    " Od": 6291,
    " genre</w>": 6292,
    " castle</w>": 6293,
    "awa</w>": 6294,
    " somewh": 6295,
    "Ch": 6296,
    " mouth</w>": 6297,
    " Matth": 6298,
    " Raf": 6299,
    " retre": 6300,
    " mounted</w>": 6301,
    "aming</w>": 6302,
    " relief</w>": 6303,
    "nership</w>": 6304,
    " immig": 6305,
    " Gilbert</w>": 6306,
    "orporation</w>": 6307,
    " wolf</w>": 6308,
    "wise</w>": 6309,
    "itor</w>": 6310,
    "reme</w>": 6311,
    " Lee</w>": 6312,
    "inct": 6313,
    " rapidly</w>": 6314,
    " extra</w>": 6315,
    " Bank</w>": 6316,
    " deck</w>": 6317,
    " steel</w>": 6318,
    " Te": 6319,
    " Allied</w>": 6320,
    " anth": 6321,
    " environment</w>": 6322,
    " represent</w>": 6323,
    "asts</w>": 6324,
    " answ": 6325,
    " unf": 6326,
    " tree</w>": 6327,
    " Pu": 6328,
    " finding</w>": 6329,
    " Also</w>": 6330,
    " shared</w>": 6331,
    " Project</w>": 6332,
    " atmosph": 6333,
    "oral</w>": 6334,
    " bands</w>": 6335,
    " developing</w>": 6336,
    " sustained</w>": 6337,
    " credited</w>": 6338,
    " stages</w>": 6339,
    " 1981</w>": 6340,
    " 94</w>": 6341,
    " strength": 6342,
    "agre": 6343,
    " 1947</w>": 6344,
    " glob": 6345,
    " planet</w>": 6346,
    " defensive</w>": 6347,
    "Sp": 6348,
    "intin</w>": 6349,
    " Olivier</w>": 6350,
    " transfer</w>": 6351,
    " criticism</w>": 6352,
    "ansas</w>": 6353,
    " Andrew</w>": 6354,
    " DNA</w>": 6355,
    "eau</w>": 6356,
    " ice</w>": 6357,
    "aware</w>": 6358,
    " filming</w>": 6359,
    "kh": 6360,
    " Guitar</w>": 6361,
    "bour": 6362,
    " Life</w>": 6363,
    " 1974</w>": 6364,
    " grav": 6365,
    " Asia</w>": 6366,
    " gas</w>": 6367,
    " populations</w>": 6368,
    " instruc": 6369,
    "idges</w>": 6370,
    " Lieutenant</w>": 6371,
    "ooth</w>": 6372,
    "ep</w>": 6373,
    " maintain</w>": 6374,
    "25</w>": 6375,
    " split</w>": 6376,
    "achel</w>": 6377,
    " 25": 6378,
    " Len": 6379,
    " mind</w>": 6380,
    " Welsh</w>": 6381,
    " din": 6382,
    " IS": 6383,
    " La": 6384,
    "itian</w>": 6385,
    " method</w>": 6386,
    "oma</w>": 6387,
    "izations</w>": 6388,
    " Scient": 6389,
    " adding</w>": 6390,
    " Mu": 6391,
    "agle</w>": 6392,
    " 1979</w>": 6393,
    "ieval</w>": 6394,
    " may": 6395,
    " Independ": 6396,
    "bridge</w>": 6397,
    " Field</w>": 6398,
    "ertheless</w>": 6399,
    "emies</w>": 6400,
    "iro</w>": 6401,
    " nor</w>": 6402,
    " semi</w>": 6403,
    " Upon</w>": 6404,
    " Chart</w>": 6405,
    " protection</w>": 6406,
    " views</w>": 6407,
    " label</w>": 6408,
    " 85</w>": 6409,
    "eley</w>": 6410,
    "roughout</w>": 6411,
    "onia</w>": 6412,
    " Bir": 6413,
    " Gordon</w>": 6414,
    "ova</w>": 6415,
    "ario</w>": 6416,
    " Fam": 6417,
    " 1983</w>": 6418,
    "erse</w>": 6419,
    " molec": 6420,
    " stopped</w>": 6421,
    " astronom": 6422,
    " converted</w>": 6423,
    " Team</w>": 6424,
    " rules</w>": 6425,
    "SA</w>": 6426,
    " li": 6427,
    " top": 6428,
    "aiss": 6429,
    " entert": 6430,
    " connection</w>": 6431,
    " infantry</w>": 6432,
    " Van</w>": 6433,
    " Green</w>": 6434,
    " Summer</w>": 6435,
    " Hos": 6436,
    "yl</w>": 6437,
    " knots</w>": 6438,
    " keep": 6439,
    " special": 6440,
    " temple</w>": 6441,
    " identity</w>": 6442,
    " ign": 6443,
    " Croatian</w>": 6444,
    " Anth": 6445,
    "ilton</w>": 6446,
    " typical</w>": 6447,
    " derived</w>": 6448,
    " mo": 6449,
    "uccess": 6450,
    " McCain</w>": 6451,
    " council</w>": 6452,
    "opp": 6453,
    " dated</w>": 6454,
    " note</w>": 6455,
    "ez": 6456,
    "state</w>": 6457,
    "water</w>": 6458,
    "her": 6459,
    " moment</w>": 6460,
    " everything</w>": 6461,
    " Bell</w>": 6462,
    " islands</w>": 6463,
    " 1982</w>": 6464,
    "erman</w>": 6465,
    "force</w>": 6466,
    "chers</w>": 6467,
    "eins</w>": 6468,
    " acres</w>": 6469,
    "umin": 6470,
    " merg": 6471,
    " poetry</w>": 6472,
    " spons": 6473,
    "pher</w>": 6474,
    " economy</w>": 6475,
    " delivered</w>": 6476,
    "work</w>": 6477,
    " rated</w>": 6478,
    "ardson</w>": 6479,
    " defence</w>": 6480,
    " protect</w>": 6481,
    " alleg": 6482,
    " ways</w>": 6483,
    " improve</w>": 6484,
    "entially</w>": 6485,
    " Magazine</w>": 6486,
    " focused</w>": 6487,
    " 1917</w>": 6488,
    " Whit": 6489,
    " 1953</w>": 6490,
    " selection</w>": 6491,
    " Hebrew</w>": 6492,
    " Under</w>": 6493,
    "uls": 6494,
    "ux": 6495,
    " Cuba</w>": 6496,
    " 1975</w>": 6497,
    " theor": 6498,
    "ide": 6499,
    " Mulder</w>": 6500,
    " noting</w>": 6501,
    " aspects</w>": 6502,
    "uilt</w>": 6503,
    " 1919</w>": 6504,
    "kish</w>": 6505,
    " tied</w>": 6506,
    " 56</w>": 6507,
    " Malay": 6508,
    " dim": 6509,
    "iff": 6510,
    " Portug": 6511,
    " giant</w>": 6512,
    " entitled</w>": 6513,
    " reading</w>": 6514,
    "ivers</w>": 6515,
    " 1965</w>": 6516,
    " crossing</w>": 6517,
    " Prof": 6518,
    " Engin": 6519,
    " entry</w>": 6520,
    " rank</w>": 6521,
    " Tri": 6522,
    "unicip": 6523,
    " funds</w>": 6524,
    " Form": 6525,
    " dens": 6526,
    " Francisc": 6527,
    " Tom": 6528,
    "aissance</w>": 6529,
    " recons": 6530,
    "oe</w>": 6531,
    "ok</w>": 6532,
    " 1976</w>": 6533,
    "unnel</w>": 6534,
    "odi": 6535,
    " Pot": 6536,
    "ockey</w>": 6537,
    "He</w>": 6538,
    "aria</w>": 6539,
    " amp": 6540,
    " vote</w>": 6541,
    "iter</w>": 6542,
    " neutr": 6543,
    "One</w>": 6544,
    " rar": 6545,
    "ictions</w>": 6546,
    " submar": 6547,
    " holding</w>": 6548,
    " path</w>": 6549,
    "ushing</w>": 6550,
    " vac": 6551,
    "aire</w>": 6552,
    " 1967</w>": 6553,
    " Dam": 6554,
    " Jin</w>": 6555,
    " consisting</w>": 6556,
    " obtained</w>": 6557,
    "eted</w>": 6558,
    " Sab": 6559,
    "agement</w>": 6560,
    " knew</w>": 6561,
    " let</w>": 6562,
    "bon</w>": 6563,
    "ag</w>": 6564,
    " landfall</w>": 6565,
    " 53</w>": 6566,
    "sia</w>": 6567,
    " surg": 6568,
    " Doc": 6569,
    " flu": 6570,
    " Origin": 6571,
    "For</w>": 6572,
    " 1948</w>": 6573,
    "Sh": 6574,
    "icate</w>": 6575,
    "ographer</w>": 6576,
    " 130</w>": 6577,
    " actress</w>": 6578,
    " lands</w>": 6579,
    " reasons</w>": 6580,
    " i</w>": 6581,
    " but": 6582,
    " estate</w>": 6583,
    " Jersey</w>": 6584,
    "andy</w>": 6585,
    " wild</w>": 6586,
    " Tintin</w>": 6587,
    " dam</w>": 6588,
    " touchdown</w>": 6589,
    "its": 6590,
    " Show</w>": 6591,
    " Kel": 6592,
    " 1958</w>": 6593,
    " am</w>": 6594,
    " Among</w>": 6595,
    " establish</w>": 6596,
    " Braz": 6597,
    " bad</w>": 6598,
    " Mah": 6599,
    " Balt": 6600,
    " Andy</w>": 6601,
    "iy": 6602,
    " triang": 6603,
    " getting</w>": 6604,
    " library</w>": 6605,
    " indicated</w>": 6606,
    " eighth</w>": 6607,
    " normal</w>": 6608,
    "heim</w>": 6609,
    " rural</w>": 6610,
    "antic</w>": 6611,
    " Brian</w>": 6612,
    " Alexander</w>": 6613,
    "ewed</w>": 6614,
    " Songs</w>": 6615,
    " occurs</w>": 6616,
    " designs</w>": 6617,
    " Ryan</w>": 6618,
    " IGN</w>": 6619,
    " 1937</w>": 6620,
    " replace</w>": 6621,
    " Mas": 6622,
    " Sub": 6623,
    " existence</w>": 6624,
    " depart": 6625,
    " thousands</w>": 6626,
    "enly</w>": 6627,
    " fast</w>": 6628,
    " urban</w>": 6629,
    "agues</w>": 6630,
    " items</w>": 6631,
    " Revi": 6632,
    " approached</w>": 6633,
    " watched</w>": 6634,
    " battalion</w>": 6635,
    " Land</w>": 6636,
    " Sle": 6637,
    " Chron": 6638,
    " Nat": 6639,
    "incol": 6640,
    "In": 6641,
    " gath": 6642,
    " 66</w>": 6643,
    " theatre</w>": 6644,
    "idden</w>": 6645,
    " Int": 6646,
    " introduction</w>": 6647,
    " serves</w>": 6648,
    " alternative</w>": 6649,
    " weakened</w>": 6650,
    " Kir": 6651,
    " Rachel</w>": 6652,
    "bound</w>": 6653,
    "erset</w>": 6654,
    "wen</w>": 6655,
    " Nintend": 6656,
    "eone</w>": 6657,
    " renamed</w>": 6658,
    " technical</w>": 6659,
    " missing</w>": 6660,
    "orated</w>": 6661,
    " leadership</w>": 6662,
    "irement</w>": 6663,
    "amic</w>": 6664,
    "rol</w>": 6665,
    "eastern</w>": 6666,
    "achus": 6667,
    "achusetts</w>": 6668,
    " minim": 6669,
    " dates</w>": 6670,
    " Order</w>": 6671,
    " Turner</w>": 6672,
    "opes</w>": 6673,
    " Prov": 6674,
    " pitched</w>": 6675,
    " parallel</w>": 6676,
    " chance</w>": 6677,
    " Bon": 6678,
    " woo": 6679,
    "elson</w>": 6680,
    " dial": 6681,
    " bound": 6682,
    " bit</w>": 6683,
    " unsuccess": 6684,
    " Bea": 6685,
    "uts</w>": 6686,
    " rob": 6687,
    "rep": 6688,
    " hotel</w>": 6689,
    " Plat": 6690,
    " DE</w>": 6691,
    " arranged</w>": 6692,
    " Nintendo</w>": 6693,
    " Native</w>": 6694,
    " Arts</w>": 6695,
    " Ell": 6696,
    "edding</w>": 6697,
    " domestic</w>": 6698,
    "igin</w>": 6699,
    "uration</w>": 6700,
    "kes</w>": 6701,
    " internal</w>": 6702,
    " Clinton</w>": 6703,
    " Ten</w>": 6704,
    " About</w>": 6705,
    " consequ": 6706,
    " iron</w>": 6707,
    " IV</w>": 6708,
    " resear": 6709,
    "ighted</w>": 6710,
    " session</w>": 6711,
    " succeeded</w>": 6712,
    " gods</w>": 6713,
    "matic</w>": 6714,
    " certified</w>": 6715,
    " Roll": 6716,
    " bomb</w>": 6717,
    " Massachusetts</w>": 6718,
    " candidate</w>": 6719,
    "encies</w>": 6720,
    "urn</w>": 6721,
    " Broad": 6722,
    " Jean</w>": 6723,
    " Elizabeth</w>": 6724,
    " crimin": 6725,
    " denied</w>": 6726,
    " neither</w>": 6727,
    " Post</w>": 6728,
    "apt": 6729,
    " bought</w>": 6730,
    " distribution</w>": 6731,
    "irs</w>": 6732,
    " phase</w>": 6733,
    "mond</w>": 6734,
    " virt": 6735,
    "istan</w>": 6736,
    " journey</w>": 6737,
    " fly</w>": 6738,
    " decade</w>": 6739,
    " perfect</w>": 6740,
    " violence</w>": 6741,
    " Medal</w>": 6742,
    " emperor</w>": 6743,
    " 1957</w>": 6744,
    "hel": 6745,
    " Federer</w>": 6746,
    " fal": 6747,
    "ii</w>": 6748,
    " West": 6749,
    " popularity</w>": 6750,
    " offers</w>": 6751,
    " Instead</w>": 6752,
    " opinion</w>": 6753,
    " Indies</w>": 6754,
    " lasted</w>": 6755,
    " 1963</w>": 6756,
    " extremely</w>": 6757,
    " improv": 6758,
    " Cam": 6759,
    " Ok": 6760,
    " Lincol": 6761,
    " decades</w>": 6762,
    " eth": 6763,
    " online</w>": 6764,
    " circum": 6765,
    " dry</w>": 6766,
    " lic": 6767,
    "ients</w>": 6768,
    "eing</w>": 6769,
    " Beat": 6770,
    " acid</w>": 6771,
    " Hawai": 6772,
    "ensus</w>": 6773,
    "nesota</w>": 6774,
    " shif": 6775,
    " product</w>": 6776,
    "ugos": 6777,
    " von</w>": 6778,
    "rea</w>": 6779,
    " path": 6780,
    " narrative</w>": 6781,
    " 1966</w>": 6782,
    " begun</w>": 6783,
    " Radio</w>": 6784,
    "shore</w>": 6785,
    " ten": 6786,
    " Id": 6787,
    " Midd": 6788,
    " 175": 6789,
    " autom": 6790,
    " Columbia</w>": 6791,
    " supplies</w>": 6792,
    " waters</w>": 6793,
    " 1910</w>": 6794,
    " capable</w>": 6795,
    " earth": 6796,
    " Lyn": 6797,
    " prison": 6798,
    "asting</w>": 6799,
    " Band</w>": 6800,
    "cement</w>": 6801,
    "iques</w>": 6802,
    " 1977</w>": 6803,
    " crowd</w>": 6804,
    " authors</w>": 6805,
    " casualties</w>": 6806,
    "rete</w>": 6807,
    " Arab</w>": 6808,
    " Daily</w>": 6809,
    " Richardson</w>": 6810,
    " Long</w>": 6811,
    "anny</w>": 6812,
    " Minnesota</w>": 6813,
    " Only</w>": 6814,
    " manner</w>": 6815,
    " cavalry</w>": 6816,
    "osoph": 6817,
    " parties</w>": 6818,
    " repe": 6819,
    " sons</w>": 6820,
    " Israel</w>": 6821,
    " trip</w>": 6822,
    " Paral": 6823,
    " franch": 6824,
    "ropri": 6825,
    " studied</w>": 6826,
    " Islands</w>": 6827,
    " public": 6828,
    " camera</w>": 6829,
    "abled</w>": 6830,
    " nomination</w>": 6831,
    " 21": 6832,
    " mater": 6833,
    "we": 6834,
    " erup": 6835,
    " arrested</w>": 6836,
    " resour": 6837,
    " Video</w>": 6838,
    " Illin": 6839,
    " exerc": 6840,
    " Sud": 6841,
    " Sega</w>": 6842,
    " secret</w>": 6843,
    " ones</w>": 6844,
    " painting</w>": 6845,
    "fare</w>": 6846,
    "With</w>": 6847,
    " mark</w>": 6848,
    " brothers</w>": 6849,
    " Admiral</w>": 6850,
    " cancer</w>": 6851,
    " basic</w>": 6852,
    " la</w>": 6853,
    "airman</w>": 6854,
    " salt</w>": 6855,
    " possibility</w>": 6856,
    "agonist</w>": 6857,
    " dissip": 6858,
    " quarter": 6859,
    "dier</w>": 6860,
    " Trib": 6861,
    "western</w>": 6862,
    " slow": 6863,
    " Stephen</w>": 6864,
    " turning</w>": 6865,
    " pret": 6866,
    "rets</w>": 6867,
    " deep": 6868,
    "rops</w>": 6869,
    "ithin</w>": 6870,
    " lob": 6871,
    "rug</w>": 6872,
    " commanded</w>": 6873,
    " Der": 6874,
    "azz</w>": 6875,
    " nest</w>": 6876,
    " Game": 6877,
    " Revolution</w>": 6878,
    " speaking</w>": 6879,
    " accused</w>": 6880,
    " attached</w>": 6881,
    " 1954</w>": 6882,
    " disc</w>": 6883,
    " exchange</w>": 6884,
    " Additionally</w>": 6885,
    " Phoen": 6886,
    "go</w>": 6887,
    " applied</w>": 6888,
    " transm": 6889,
    "roc": 6890,
    "erate</w>": 6891,
    " Liber": 6892,
    " reaction</w>": 6893,
    " Mexican</w>": 6894,
    "uss</w>": 6895,
    " occasionally</w>": 6896,
    " musicians</w>": 6897,
    " Somerset</w>": 6898,
    " Oldham</w>": 6899,
    "eptun": 6900,
    "It</w>": 6901,
    "yo</w>": 6902,
    " distinct</w>": 6903,
    " recalled</w>": 6904,
    "sm": 6905,
    " rear</w>": 6906,
    " committed</w>": 6907,
    " Singles</w>": 6908,
    "ello</w>": 6909,
    " Cape</w>": 6910,
    " Hollywood</w>": 6911,
    " #": 6912,
    " #</w>": 6913,
    " objects</w>": 6914,
    "ampionships</w>": 6915,
    " Naz": 6916,
    "ixon</w>": 6917,
    " southeast</w>": 6918,
    " cold</w>": 6919,
    " 176": 6920,
    " x": 6921,
    " Bond</w>": 6922,
    " carrying</w>": 6923,
    " enemies</w>": 6924,
    " classified</w>": 6925,
    " museum</w>": 6926,
    " missed</w>": 6927,
    "onnel</w>": 6928,
    " clubs</w>": 6929,
    " posted</w>": 6930,
    " ninth</w>": 6931,
    " Mid": 6932,
    "anic</w>": 6933,
    "rol": 6934,
    " decline</w>": 6935,
    " fung": 6936,
    "bor</w>": 6937,
    "lam</w>": 6938,
    "ainder</w>": 6939,
    " principal</w>": 6940,
    "ones": 6941,
    " Gh": 6942,
    " religion</w>": 6943,
    " Public</w>": 6944,
    " 1978</w>": 6945,
    " ratings</w>": 6946,
    "eets</w>": 6947,
    "rist</w>": 6948,
    " Gall": 6949,
    " Up</w>": 6950,
    " reality</w>": 6951,
    "lad</w>": 6952,
    "olished</w>": 6953,
    " bottom</w>": 6954,
    "ors": 6955,
    "gers</w>": 6956,
    " attracted</w>": 6957,
    " convin": 6958,
    " assault</w>": 6959,
    " solar</w>": 6960,
    " communities</w>": 6961,
    " Meanwhile</w>": 6962,
    " Electr": 6963,
    " cent</w>": 6964,
    " Francisco</w>": 6965,
    " fictional</w>": 6966,
    "ava</w>": 6967,
    " Emperor</w>": 6968,
    " Hay": 6969,
    " Phill": 6970,
    " Final</w>": 6971,
    " Paralymp": 6972,
    " fan</w>": 6973,
    "asters</w>": 6974,
    " orches": 6975,
    " message</w>": 6976,
    " Book</w>": 6977,
    " flat</w>": 6978,
    " depar": 6979,
    " Ref": 6980,
    " Jes": 6981,
    "oard</w>": 6982,
    " settled</w>": 6983,
    " Even</w>": 6984,
    " promotion</w>": 6985,
    " massive</w>": 6986,
    "iece</w>": 6987,
    " Top</w>": 6988,
    " MTV</w>": 6989,
    " ERA</w>": 6990,
    " Due</w>": 6991,
    " difficulty</w>": 6992,
    " sup": 6993,
    "acting</w>": 6994,
    " scientific</w>": 6995,
    " entering</w>": 6996,
    " 1955</w>": 6997,
    " cin": 6998,
    "ha</w>": 6999,
    "ranean</w>": 7000,
    " Egypt</w>": 7001,
    " origin</w>": 7002,
    " accur": 7003,
    "reds</w>": 7004,
    "ugoslav": 7005,
    "lets</w>": 7006,
    "aine</w>": 7007,
    " 120</w>": 7008,
    " accla": 7009,
    " someone</w>": 7010,
    " Budd": 7011,
    " department</w>": 7012,
    "liam": 7013,
    " athletes</w>": 7014,
    " Newton</w>": 7015,
    "erto</w>": 7016,
    " UTC</w>": 7017,
    " classes</w>": 7018,
    " greatly</w>": 7019,
    " exist</w>": 7020,
    " remainder</w>": 7021,
    " 1962</w>": 7022,
    " 1952</w>": 7023,
    " breaking</w>": 7024,
    " concur": 7025,
    " easily</w>": 7026,
    " Mario</w>": 7027,
    "asses</w>": 7028,
    " heads</w>": 7029,
    " Yugoslav": 7030,
    " storyline</w>": 7031,
    " Hou": 7032,
    "olds</w>": 7033,
    " Castle</w>": 7034,
    "therwise</w>": 7035,
    " independence</w>": 7036,
    " platform</w>": 7037,
    "BI</w>": 7038,
    " History</w>": 7039,
    " milit": 7040,
    " Art</w>": 7041,
    " recommended</w>": 7042,
    " skin</w>": 7043,
    "ensis</w>": 7044,
    " Railway</w>": 7045,
    " restaur": 7046,
    " press": 7047,
    "dy</w>": 7048,
    " specifically</w>": 7049,
    " sculp": 7050,
    " involvement</w>": 7051,
    "iz</w>": 7052,
    " discovery</w>": 7053,
    " considerable</w>": 7054,
    " finishing</w>": 7055,
    " opt": 7056,
    " verse</w>": 7057,
    " retained</w>": 7058,
    "ressing</w>": 7059,
    " stayed</w>": 7060,
    " invited</w>": 7061,
    " outer</w>": 7062,
    "lers</w>": 7063,
    "roit</w>": 7064,
    "awn</w>": 7065,
    " depth</w>": 7066,
    " Obs": 7067,
    "ivalent</w>": 7068,
    " supern": 7069,
    " mort": 7070,
    " Heav": 7071,
    " approved</w>": 7072,
    " Hamilton</w>": 7073,
    " literary</w>": 7074,
    " Ca": 7075,
    " Inv": 7076,
    " aver": 7077,
    " Alan</w>": 7078,
    " Ped": 7079,
    " wel": 7080,
    "estant</w>": 7081,
    "j</w>": 7082,
    " Military</w>": 7083,
    " permanent</w>": 7084,
    " somewhat</w>": 7085,
    " sport</w>": 7086,
    "alities</w>": 7087,
    " consist": 7088,
    "eget": 7089,
    " Temple</w>": 7090,
    " effectively</w>": 7091,
    "ultan": 7092,
    " intelligence</w>": 7093,
    " Wol": 7094,
    " Night</w>": 7095,
    "char": 7096,
    "kins</w>": 7097,
    " poet</w>": 7098,
    " bar</w>": 7099,
    "onc": 7100,
    " graphics</w>": 7101,
    " attend": 7102,
    " 1936</w>": 7103,
    "yard</w>": 7104,
    " winner</w>": 7105,
    " stret": 7106,
    " equipped</w>": 7107,
    " coal</w>": 7108,
    " py": 7109,
    " 26": 7110,
    "ets": 7111,
    " lib": 7112,
    "owns</w>": 7113,
    "eland</w>": 7114,
    " Illinois</w>": 7115,
    " Sunday</w>": 7116,
    "undy</w>": 7117,
    "onymous</w>": 7118,
    " Oh": 7119,
    " feeling</w>": 7120,
    "oratory</w>": 7121,
    " 1961</w>": 7122,
    " secure</w>": 7123,
    " Four</w>": 7124,
    " Merc": 7125,
    " Rod": 7126,
    "ongwrit": 7127,
    "BN</w>": 7128,
    "iat": 7129,
    " Player</w>": 7130,
    " Sel": 7131,
    " battleships</w>": 7132,
    " watch</w>": 7133,
    " sounds</w>": 7134,
    " Neth": 7135,
    " proposal</w>": 7136,
    " voted</w>": 7137,
    "ustin</w>": 7138,
    " industrial</w>": 7139,
    "igns</w>": 7140,
    " Gram": 7141,
    "estward</w>": 7142,
    " plas": 7143,
    " Lib": 7144,
    "ibl": 7145,
    " challenge</w>": 7146,
    " less": 7147,
    " 54</w>": 7148,
    " Pla": 7149,
    " Gran": 7150,
    " neighbor": 7151,
    " rose</w>": 7152,
    "yles</w>": 7153,
    "ailed</w>": 7154,
    " reduce</w>": 7155,
    " Weekly</w>": 7156,
    "uble</w>": 7157,
    " charged</w>": 7158,
    " reviewers</w>": 7159,
    " vessels</w>": 7160,
    " longest</w>": 7161,
    "rell</w>": 7162,
    "isa</w>": 7163,
    " table</w>": 7164,
    " Produc": 7165,
    " Fair": 7166,
    "rim": 7167,
    " owner</w>": 7168,
    " Stan": 7169,
    " Villa</w>": 7170,
    " bad": 7171,
    " distinct": 7172,
    " threatened</w>": 7173,
    " describing</w>": 7174,
    " actual</w>": 7175,
    " Ic": 7176,
    " Conc": 7177,
    "onica</w>": 7178,
    " Around</w>": 7179,
    " McG": 7180,
    " meters</w>": 7181,
    " remn": 7182,
    " Wilson</w>": 7183,
    "nes</w>": 7184,
    "ima</w>": 7185,
    " Mot": 7186,
    " jun": 7187,
    " Yor": 7188,
    " planning</w>": 7189,
    " ship": 7190,
    " composition</w>": 7191,
    " fun</w>": 7192,
    "ifa</w>": 7193,
    " mut": 7194,
    " concerns</w>": 7195,
    "“</w>": 7196,
    " strongly</w>": 7197,
    "ipping</w>": 7198,
    " od": 7199,
    " Flight</w>": 7200,
    " rival</w>": 7201,
    " supporters</w>": 7202,
    " Abb": 7203,
    " mig": 7204,
    " fields</w>": 7205,
    " Swift</w>": 7206,
    "urg": 7207,
    " Under": 7208,
    " Howe</w>": 7209,
    " Carlsen</w>": 7210,
    " skills</w>": 7211,
    " 250</w>": 7212,
    " duties</w>": 7213,
    " association</w>": 7214,
    " gard": 7215,
    " restored</w>": 7216,
    " Spr": 7217,
    " Detroit</w>": 7218,
    " disappoin": 7219,
    "78</w>": 7220,
    " sailed</w>": 7221,
    " Raj": 7222,
    " interested</w>": 7223,
    " WW": 7224,
    " ring</w>": 7225,
    " generation</w>": 7226,
    " gall": 7227,
    " Cat": 7228,
    " statement</w>": 7229,
    " recovered</w>": 7230,
    "oz": 7231,
    " portrayed</w>": 7232,
    " southwest</w>": 7233,
    " Corporation</w>": 7234,
    " Premier</w>": 7235,
    " bacteria</w>": 7236,
    " ago</w>": 7237,
    " Ps": 7238,
    "ira</w>": 7239,
    " target</w>": 7240,
    " superv": 7241,
    " honor</w>": 7242,
    " regional</w>": 7243,
    " Que": 7244,
    " 62</w>": 7245,
    " Arab": 7246,
    "iversary</w>": 7247,
    " spect": 7248,
    " RA": 7249,
    "anian</w>": 7250,
    " basketball</w>": 7251,
    " Alf": 7252,
    " ill</w>": 7253,
    " medieval</w>": 7254,
    " ISBN</w>": 7255,
    "ucky</w>": 7256,
    "rain</w>": 7257,
    " door</w>": 7258,
    " injured</w>": 7259,
    " slowly</w>": 7260,
    "fort": 7261,
    " opposite</w>": 7262,
    " AD</w>": 7263,
    "ropol": 7264,
    "stances</w>": 7265,
    " accounts</w>": 7266,
    " busin": 7267,
    " replacement</w>": 7268,
    " No": 7269,
    " Gold": 7270,
    "ables</w>": 7271,
    " settlers</w>": 7272,
    "zodi": 7273,
    "zodiazep": 7274,
    " link</w>": 7275,
    "Un": 7276,
    "arc": 7277,
    " equal</w>": 7278,
    " guard</w>": 7279,
    "erick</w>": 7280,
    " Alice</w>": 7281,
    " installed</w>": 7282,
    " Univers": 7283,
    " “</w>": 7284,
    " rarely</w>": 7285,
    " god</w>": 7286,
    " operating</w>": 7287,
    " flights</w>": 7288,
    " satisf": 7289,
    "ulations</w>": 7290,
    " charges</w>": 7291,
    " 22": 7292,
    "rogen</w>": 7293,
    " thirty</w>": 7294,
    "ommod": 7295,
    " Disney</w>": 7296,
    "ba</w>": 7297,
    " work": 7298,
    "ason": 7299,
    " politics</w>": 7300,
    " Maryland</w>": 7301,
    " completion</w>": 7302,
    " Wit": 7303,
    " evening</w>": 7304,
    " combination</w>": 7305,
    " Nelson</w>": 7306,
    " needs</w>": 7307,
    "osis</w>": 7308,
    " Aut": 7309,
    " outbreak</w>": 7310,
    "iefs</w>": 7311,
    " intr": 7312,
    " discussed</w>": 7313,
    " nob": 7314,
    " Norway</w>": 7315,
    " 72</w>": 7316,
    " behavi": 7317,
    " dipl": 7318,
    "evin</w>": 7319,
    " Operation</w>": 7320,
    "inn": 7321,
    "owell</w>": 7322,
    " brigade</w>": 7323,
    "ops": 7324,
    " lb</w>": 7325,
    " appeal</w>": 7326,
    "This</w>": 7327,
    "ardian</w>": 7328,
    " marg": 7329,
    " attributed</w>": 7330,
    "illy</w>": 7331,
    "tment</w>": 7332,
    " grow</w>": 7333,
    "spec": 7334,
    " acts</w>": 7335,
    "tructure</w>": 7336,
    " Channel</w>": 7337,
    " drug</w>": 7338,
    " Cab": 7339,
    "ubble</w>": 7340,
    " fish</w>": 7341,
    " Germans</w>": 7342,
    "irates</w>": 7343,
    "tenden</w>": 7344,
    " Rel": 7345,
    "Ar": 7346,
    " Hospital</w>": 7347,
    " hang": 7348,
    " intersection</w>": 7349,
    " causes</w>": 7350,
    " income</w>": 7351,
    "kan</w>": 7352,
    " minister</w>": 7353,
    " coastal</w>": 7354,
    "apes</w>": 7355,
    " spac": 7356,
    " Yank": 7357,
    " Wheeler</w>": 7358,
    " proteins</w>": 7359,
    "ysc": 7360,
    " purchase</w>": 7361,
    " establishment</w>": 7362,
    " assistance</w>": 7363,
    "otted</w>": 7364,
    " measure</w>": 7365,
    " test": 7366,
    " terminus</w>": 7367,
    " tub": 7368,
    " Kap": 7369,
    " appearing</w>": 7370,
    "tors</w>": 7371,
    " ”": 7372,
    " ”</w>": 7373,
    " crossed</w>": 7374,
    " Musl": 7375,
    " disturb": 7376,
    " Nether": 7377,
    " races</w>": 7378,
    " respect</w>": 7379,
    " siege</w>": 7380,
    " surviving</w>": 7381,
    " witn": 7382,
    "ares</w>": 7383,
    " pregn": 7384,
    "eafter</w>": 7385,
    "oss</w>": 7386,
    "anium</w>": 7387,
    "insula</w>": 7388,
    "ewhere</w>": 7389,
    " FA</w>": 7390,
    " assumed</w>": 7391,
    " battery</w>": 7392,
    " Mountain</w>": 7393,
    " veter": 7394,
    " 1933</w>": 7395,
    "FA</w>": 7396,
    " pointed</w>": 7397,
    " lowest</w>": 7398,
    " Go": 7399,
    " math": 7400,
    "ilipp": 7401,
    " chorus</w>": 7402,
    " passengers</w>": 7403,
    " channel</w>": 7404,
    " inner</w>": 7405,
    " separated</w>": 7406,
    " victims</w>": 7407,
    " Jr</w>": 7408,
    "ologists</w>": 7409,
    " hoped</w>": 7410,
    " 96</w>": 7411,
    " nick": 7412,
    " prison</w>": 7413,
    "ando</w>": 7414,
    "inum</w>": 7415,
    " Gab": 7416,
    " rapid</w>": 7417,
    " moves</w>": 7418,
    " Loc": 7419,
    " electric</w>": 7420,
    " fair": 7421,
    " Red": 7422,
    " resistance</w>": 7423,
    " laws</w>": 7424,
    " raise</w>": 7425,
    " format</w>": 7426,
    " Marine</w>": 7427,
    " Adam</w>": 7428,
    " Who</w>": 7429,
    "ati</w>": 7430,
    " harm": 7431,
    " opera</w>": 7432,
    " driving</w>": 7433,
    "rov": 7434,
    "urs</w>": 7435,
    "asi</w>": 7436,
    " batting</w>": 7437,
    "12</w>": 7438,
    "01</w>": 7439,
    " Mills</w>": 7440,
    " classification</w>": 7441,
    " Township</w>": 7442,
    " colony</w>": 7443,
    " otherwise</w>": 7444,
    " distributed</w>": 7445,
    " Tower</w>": 7446,
    " 1912</w>": 7447,
    "omen</w>": 7448,
    " specimens</w>": 7449,
    " Common": 7450,
    "aten</w>": 7451,
    " personnel</w>": 7452,
    " involving</w>": 7453,
    " bringing</w>": 7454,
    " penalty</w>": 7455,
    " Cel": 7456,
    " preferred</w>": 7457,
    " Daniel</w>": 7458,
    " plane</w>": 7459,
    "play</w>": 7460,
    " Your</w>": 7461,
    "itage</w>": 7462,
    " boy</w>": 7463,
    " Square</w>": 7464,
    " Horse</w>": 7465,
    " adapted</w>": 7466,
    " front": 7467,
    "atch</w>": 7468,
    "cription</w>": 7469,
    " emerged</w>": 7470,
    "uct": 7471,
    "ador</w>": 7472,
    " Mediter": 7473,
    " Bu": 7474,
    " Howard</w>": 7475,
    "istered</w>": 7476,
    "vey</w>": 7477,
    " gal": 7478,
    " 1931</w>": 7479,
    " regularly</w>": 7480,
    " believes</w>": 7481,
    "ogs</w>": 7482,
    " wickets</w>": 7483,
    " colonial</w>": 7484,
    " Norw": 7485,
    " Boo": 7486,
    " Carter</w>": 7487,
    " Way</w>": 7488,
    " heat</w>": 7489,
    "rate</w>": 7490,
    " Not</w>": 7491,
    " Will": 7492,
    " seeing</w>": 7493,
    " unusual</w>": 7494,
    " desire</w>": 7495,
    " assass": 7496,
    " successor</w>": 7497,
    "ycl": 7498,
    " novels</w>": 7499,
    " UN": 7500,
    "itals</w>": 7501,
    " journalist</w>": 7502,
    " Baseball</w>": 7503,
    " convoy</w>": 7504,
    " Kent": 7505,
    "anz": 7506,
    " Cer": 7507,
    " cad": 7508,
    " Sor": 7509,
    "evelopment</w>": 7510,
    "angers</w>": 7511,
    " loy": 7512,
    "icting</w>": 7513,
    " reception</w>": 7514,
    " assistant</w>": 7515,
    "osing</w>": 7516,
    " Mediterranean</w>": 7517,
    " reviewer</w>": 7518,
    " legislation</w>": 7519,
    "orious</w>": 7520,
    "stitution</w>": 7521,
    " offices</w>": 7522,
    " sessions</w>": 7523,
    " NBC</w>": 7524,
    " excav": 7525,
    "sman</w>": 7526,
    " routes</w>": 7527,
    "entures</w>": 7528,
    "FL</w>": 7529,
    " duty</w>": 7530,
    " Arthur</w>": 7531,
    " Station</w>": 7532,
    " mathemat": 7533,
    " Today</w>": 7534,
    "cy</w>": 7535,
    " Frank": 7536,
    "atters</w>": 7537,
    " formally</w>": 7538,
    "eously</w>": 7539,
    "opher</w>": 7540,
    "dem": 7541,
    " praise</w>": 7542,
    " legs</w>": 7543,
    " Over": 7544,
    " techniques</w>": 7545,
    " relative</w>": 7546,
    "rane</w>": 7547,
    "oys</w>": 7548,
    " predecess": 7549,
    "aha</w>": 7550,
    " confron": 7551,
    " bass</w>": 7552,
    " downtown</w>": 7553,
    " Thus</w>": 7554,
    " flo": 7555,
    " favor</w>": 7556,
    " human": 7557,
    "anto</w>": 7558,
    " Rolling</w>": 7559,
    " Rap": 7560,
    " Transp": 7561,
    " destruction</w>": 7562,
    " tell</w>": 7563,
    " Hotel</w>": 7564,
    "rees</w>": 7565,
    " Ben</w>": 7566,
    "riev": 7567,
    " seemed</w>": 7568,
    " determine</w>": 7569,
    " shall</w>": 7570,
    " assemb": 7571,
    " passage</w>": 7572,
    "occ": 7573,
    " Prog": 7574,
    " Science</w>": 7575,
    " Pit": 7576,
    "wealth</w>": 7577,
    " negoti": 7578,
    " suffering</w>": 7579,
    " inspiration</w>": 7580,
    "imony</w>": 7581,
    "ignment</w>": 7582,
    "ossible</w>": 7583,
    " attacking</w>": 7584,
    " Athlet": 7585,
    " concerned</w>": 7586,
    " Egyptian</w>": 7587,
    "crib": 7588,
    " debate</w>": 7589,
    " object</w>": 7590,
    " faith</w>": 7591,
    " inher": 7592,
    " airport</w>": 7593,
    " presidential</w>": 7594,
    " commission</w>": 7595,
    "amber</w>": 7596,
    " Six</w>": 7597,
    "ali</w>": 7598,
    "ugby</w>": 7599,
    "erg</w>": 7600,
    " MD</w>": 7601,
    "owler</w>": 7602,
    " incorporated</w>": 7603,
    " Fred": 7604,
    "tings</w>": 7605,
    " 1938</w>": 7606,
    "orado</w>": 7607,
    "forms</w>": 7608,
    " programme</w>": 7609,
    " Be</w>": 7610,
    " songwrit": 7611,
    " Sam</w>": 7612,
    " wood</w>": 7613,
    "acent</w>": 7614,
    " methods</w>": 7615,
    " Indones": 7616,
    " talk</w>": 7617,
    " tall</w>": 7618,
    " funding</w>": 7619,
    " dominated</w>": 7620,
    " indig": 7621,
    "75</w>": 7622,
    "sewhere</w>": 7623,
    " Class": 7624,
    " cod": 7625,
    " Ger": 7626,
    " Dj": 7627,
    " Kur": 7628,
    " promote</w>": 7629,
    " bon": 7630,
    " Shortly</w>": 7631,
    " 76</w>": 7632,
    "eps</w>": 7633,
    " armor</w>": 7634,
    " require</w>": 7635,
    " spot</w>": 7636,
    " recognition</w>": 7637,
    " Ren": 7638,
    " die</w>": 7639,
    " ackn": 7640,
    " apparent</w>": 7641,
    " Recording</w>": 7642,
    " Star": 7643,
    "ints</w>": 7644,
    " ster": 7645,
    " Moon</w>": 7646,
    " 1935</w>": 7647,
    " Country</w>": 7648,
    " Turkish</w>": 7649,
    " shel": 7650,
    "aj</w>": 7651,
    " Canal</w>": 7652,
    " Crittenden</w>": 7653,
    " responsibility</w>": 7654,
    " store</w>": 7655,
    " station": 7656,
    " 1890</w>": 7657,
    " Corn": 7658,
    " Tim": 7659,
    " hall</w>": 7660,
    " 57</w>": 7661,
    "bar</w>": 7662,
    " shr": 7663,
    " stands</w>": 7664,
    " treaty</w>": 7665,
    "oir</w>": 7666,
    " mean</w>": 7667,
    " mir": 7668,
    " adults</w>": 7669,
    " resolution</w>": 7670,
    "yscra": 7671,
    "anth": 7672,
    " description</w>": 7673,
    " infr": 7674,
    " sell</w>": 7675,
    " surrounded</w>": 7676,
    " questions</w>": 7677,
    "istol</w>": 7678,
    " grounds</w>": 7679,
    " Golden</w>": 7680,
    " chapter</w>": 7681,
    " Sem": 7682,
    " accident</w>": 7683,
    "uty</w>": 7684,
    " Persian</w>": 7685,
    " Ann</w>": 7686,
    "christ</w>": 7687,
    " achieve</w>": 7688,
    " rum": 7689,
    " belong": 7690,
    " More</w>": 7691,
    " traveled</w>": 7692,
    " villages</w>": 7693,
    " isolated</w>": 7694,
    " Netherlands</w>": 7695,
    " spoke</w>": 7696,
    " historians</w>": 7697,
    " v</w>": 7698,
    "ortedly</w>": 7699,
    "ros</w>": 7700,
    "agan</w>": 7701,
    " compounds</w>": 7702,
    " reserv": 7703,
    "ervative</w>": 7704,
    " Scientology</w>": 7705,
    "urches</w>": 7706,
    " x</w>": 7707,
    " requested</w>": 7708,
    " Sound</w>": 7709,
    " equivalent</w>": 7710,
    " Commander</w>": 7711,
    " Philipp": 7712,
    " scra": 7713,
    " relationships</w>": 7714,
    "erated</w>": 7715,
    " progress</w>": 7716,
    " zone</w>": 7717,
    " Hu": 7718,
    " accommod": 7719,
    " Mey": 7720,
    "elings</w>": 7721,
    " Third</w>": 7722,
    " protein</w>": 7723,
    " concrete</w>": 7724,
    "han</w>": 7725,
    "veston</w>": 7726,
    " Ohio</w>": 7727,
    "aty</w>": 7728,
    " subt": 7729,
    " consider</w>": 7730,
    " Nap": 7731,
    " else</w>": 7732,
    " Commonwealth</w>": 7733,
    " cul": 7734,
    "assed</w>": 7735,
    " Colorado</w>": 7736,
    " Observ": 7737,
    " Bh": 7738,
    " convinced</w>": 7739,
    " anniversary</w>": 7740,
    "ner": 7741,
    " persu": 7742,
    " detailed</w>": 7743,
    " Jon": 7744,
    " hero</w>": 7745,
    "ela</w>": 7746,
    "ighters</w>": 7747,
    " pitch</w>": 7748,
    " Kra": 7749,
    "lan</w>": 7750,
    " wearing</w>": 7751,
    " 140</w>": 7752,
    " AR": 7753,
    " foss": 7754,
    " Justice</w>": 7755,
    " canal</w>": 7756,
    "oula</w>": 7757,
    " franchise</w>": 7758,
    " Az": 7759,
    " Simil": 7760,
    "ident": 7761,
    " falling</w>": 7762,
    "usic</w>": 7763,
    " Between</w>": 7764,
    " hosted</w>": 7765,
    "ux</w>": 7766,
    " depicted</w>": 7767,
    " Bol": 7768,
    " Director</w>": 7769,
    " academic</w>": 7770,
    " Age</w>": 7771,
    "esl": 7772,
    " Democratic</w>": 7773,
    " Good</w>": 7774,
    " Simps": 7775,
    " Bart</w>": 7776,
    "kare</w>": 7777,
    " Headley</w>": 7778,
    "eptunium</w>": 7779,
    "aga</w>": 7780,
    " ready</w>": 7781,
    " Five</w>": 7782,
    " railroad</w>": 7783,
    "iti</w>": 7784,
    " starred</w>": 7785,
    "liance</w>": 7786,
    " hundreds</w>": 7787,
    " Wars</w>": 7788,
    " experim": 7789,
    " Caribb": 7790,
    " cath": 7791,
    "imore</w>": 7792,
    " experiences</w>": 7793,
    "ographical</w>": 7794,
    " Tal": 7795,
    "pse</w>": 7796,
    " Jeff": 7797,
    " drawing</w>": 7798,
    "ounted</w>": 7799,
    " Stu": 7800,
    " eleven</w>": 7801,
    " Simpsons</w>": 7802,
    " quant": 7803,
    " Dean</w>": 7804,
    " correc": 7805,
    " Samuel</w>": 7806,
    " shots</w>": 7807,
    " agents</w>": 7808,
    " Si": 7809,
    " Sav": 7810,
    " narrow</w>": 7811,
    " looked</w>": 7812,
    " Domin": 7813,
    " Ser": 7814,
    "ensions</w>": 7815,
    " rebels</w>": 7816,
    " Caribbean</w>": 7817,
    " feelings</w>": 7818,
    " influential</w>": 7819,
    "akers</w>": 7820,
    " clim": 7821,
    " underground</w>": 7822,
    " Adams</w>": 7823,
    " Destiny</w>": 7824,
    " downlo": 7825,
    "aken</w>": 7826,
    " citizens</w>": 7827,
    " gun": 7828,
    " Boy</w>": 7829,
    " 1959</w>": 7830,
    " worst</w>": 7831,
    " picked</w>": 7832,
    " streets</w>": 7833,
    " cargo</w>": 7834,
    " anyone</w>": 7835,
    "ersed</w>": 7836,
    " immediate</w>": 7837,
    " Max</w>": 7838,
    " step</w>": 7839,
    " ven": 7840,
    " creator</w>": 7841,
    " cycle</w>": 7842,
    " costs</w>": 7843,
    " drop</w>": 7844,
    "ven</w>": 7845,
    " ensure</w>": 7846,
    " adjacent</w>": 7847,
    " Forest</w>": 7848,
    " watching</w>": 7849,
    " premiered</w>": 7850,
    " Fame</w>": 7851,
    " Rome</w>": 7852,
    " eggs</w>": 7853,
    " genes</w>": 7854,
    "ego</w>": 7855,
    "aled</w>": 7856,
    " instruments</w>": 7857,
    " Ts": 7858,
    " organizations</w>": 7859,
    "ansen</w>": 7860,
    " continuing</w>": 7861,
    " visible</w>": 7862,
    "ilation</w>": 7863,
    "orous</w>": 7864,
    " worth</w>": 7865,
    " Mik": 7866,
    " relations</w>": 7867,
    "eel</w>": 7868,
    " ruled</w>": 7869,
    " accompl": 7870,
    " philosoph": 7871,
    " normally</w>": 7872,
    "inet</w>": 7873,
    " returns</w>": 7874,
    " leads</w>": 7875,
    " diplom": 7876,
    " 1951</w>": 7877,
    " rib": 7878,
    " municip": 7879,
    " bid</w>": 7880,
    "inated</w>": 7881,
    " rail</w>": 7882,
    " So</w>": 7883,
    "hatt": 7884,
    " Ernest</w>": 7885,
    " task</w>": 7886,
    " sequel</w>": 7887,
    " representing</w>": 7888,
    " impressed</w>": 7889,
    "oting</w>": 7890,
    " engines</w>": 7891,
    " 110</w>": 7892,
    " aboard</w>": 7893,
    "ydney</w>": 7894,
    "eration</w>": 7895,
    " encouraged</w>": 7896,
    " enth": 7897,
    "abil": 7898,
    " dub": 7899,
    "eda</w>": 7900,
    " consp": 7901,
    " emotional</w>": 7902,
    " holds</w>": 7903,
    " sees</w>": 7904,
    " 1949</w>": 7905,
    " Television</w>": 7906,
    " Kal": 7907,
    " ru": 7908,
    " rain</w>": 7909,
    "CE</w>": 7910,
    " Glen": 7911,
    "></w>": 7912,
    "rams</w>": 7913,
    " atmosphere</w>": 7914,
    " youth</w>": 7915,
    " diameter</w>": 7916,
    " apparently</w>": 7917,
    " recip": 7918,
    " 93</w>": 7919,
    " Ba": 7920,
    " fit</w>": 7921,
    " segment</w>": 7922,
    " technique</w>": 7923,
    " il": 7924,
    " coordin": 7925,
    "From</w>": 7926,
    " Shiva</w>": 7927,
    " 67</w>": 7928,
    " Davis</w>": 7929,
    " meets</w>": 7930,
    "riers</w>": 7931,
    " warning</w>": 7932,
    " Stadium</w>": 7933,
    " Shir": 7934,
    " hunting</w>": 7935,
    " Command</w>": 7936,
    " partly</w>": 7937,
    "sk": 7938,
    "rons</w>": 7939,
    " Ing": 7940,
    " natur": 7941,
    "ski</w>": 7942,
    " wins</w>": 7943,
    " apart</w>": 7944,
    " crosses</w>": 7945,
    "15</w>": 7946,
    " fighter</w>": 7947,
    " neck</w>": 7948,
    " existed</w>": 7949,
    " province</w>": 7950,
    " vessel</w>": 7951,
    "iner</w>": 7952,
    " cap</w>": 7953,
    " Open</w>": 7954,
    " Supreme</w>": 7955,
    " Marsh": 7956,
    " resources</w>": 7957,
    " Dream": 7958,
    "esn</w>": 7959,
    " Circ": 7960,
    " defend": 7961,
    "obs</w>": 7962,
    " Men</w>": 7963,
    " Nixon</w>": 7964,
    " 1932</w>": 7965,
    " vide": 7966,
    "organ": 7967,
    " chain</w>": 7968,
    " Honor</w>": 7969,
    " temporary</w>": 7970,
    " interests</w>": 7971,
    " specimen</w>": 7972,
    "iph": 7973,
    " panel</w>": 7974,
    "val</w>": 7975,
    " wooden</w>": 7976,
    " intense</w>": 7977,
    " Kennedy</w>": 7978,
    " destroy</w>": 7979,
    " belief</w>": 7980,
    "chang": 7981,
    " materials</w>": 7982,
    " soil</w>": 7983,
    "medi": 7984,
    " interpret": 7985,
    " classic</w>": 7986,
    "onian</w>": 7987,
    "quez</w>": 7988,
    " inhabit": 7989,
    " End</w>": 7990,
    " frequent</w>": 7991,
    " Wood</w>": 7992,
    " avo": 7993,
    "ugs</w>": 7994,
    " Space</w>": 7995,
    " Poland</w>": 7996,
    " uranium</w>": 7997,
    " hope</w>": 7998,
    " tribes</w>": 7999,
    " Han</w>": 8000,
    " temperatures</w>": 8001,
    " mode</w>": 8002,
    "box</w>": 8003,
    " Haifa</w>": 8004,
    " animated</w>": 8005,
    " arrest</w>": 8006,
    " demand</w>": 8007,
    " 24": 8008,
    " interior</w>": 8009,
    " 1934</w>": 8010,
    " sed": 8011,
    "fect": 8012,
    "wal</w>": 8013,
    " Wall": 8014,
    "ann</w>": 8015,
    " recre": 8016,
    "ealthy</w>": 8017,
    "enance</w>": 8018,
    "essa</w>": 8019,
    "ti</w>": 8020,
    " Kevin</w>": 8021,
    " Berlin</w>": 8022,
    " Russia</w>": 8023,
    " Wilhel": 8024,
    " extension</w>": 8025,
    " Palest": 8026,
    " votes</w>": 8027,
    "aen": 8028,
    "anga</w>": 8029,
    " none</w>": 8030,
    " vision</w>": 8031,
    " bron": 8032,
    "gar": 8033,
    " scat": 8034,
    "otype</w>": 8035,
    " investigation</w>": 8036,
    "inian</w>": 8037,
    "aska</w>": 8038,
    " departure</w>": 8039,
    " dating</w>": 8040,
    " suggest</w>": 8041,
    " behavior</w>": 8042,
    " dismissed</w>": 8043,
    "be</w>": 8044,
    " shoot</w>": 8045,
    " 1909</w>": 8046,
    " operate</w>": 8047,
    " claiming</w>": 8048,
    " forests</w>": 8049,
    " closer</w>": 8050,
    "labama</w>": 8051,
    " fashion</w>": 8052,
    " reconn": 8053,
    " doesn</w>": 8054,
    " teeth</w>": 8055,
    " Wright</w>": 8056,
    "ayne</w>": 8057,
    " trains</w>": 8058,
    " poems</w>": 8059,
    "ihanna</w>": 8060,
    "ogg": 8061,
    " changing</w>": 8062,
    " memory</w>": 8063,
    " taught</w>": 8064,
    " fine</w>": 8065,
    " accept</w>": 8066,
    " steam</w>": 8067,
    " Sydney</w>": 8068,
    "par": 8069,
    " Rem": 8070,
    " firm</w>": 8071,
    " stric": 8072,
    " Industry</w>": 8073,
    " guit": 8074,
    " noise</w>": 8075,
    " Ministry</w>": 8076,
    " survey</w>": 8077,
    " sever": 8078,
    "mat": 8079,
    " illeg": 8080,
    " occasions</w>": 8081,
    " executed</w>": 8082,
    " Wing</w>": 8083,
    "lders</w>": 8084,
    " Beach</w>": 8085,
    " Conv": 8086,
    " Portland</w>": 8087,
    " controversy</w>": 8088,
    " electronic</w>": 8089,
    " Kong</w>": 8090,
    " Wind": 8091,
    " Bundy</w>": 8092,
    " bes": 8093,
    " properties</w>": 8094,
    " Memorial</w>": 8095,
    "escope</w>": 8096,
    "itated</w>": 8097,
    "ontin": 8098,
    " chron": 8099,
    "ldn</w>": 8100,
    " circulation</w>": 8101,
    " romantic</w>": 8102,
    "ilst</w>": 8103,
    " injuries</w>": 8104,
    " stood</w>": 8105,
    "rior</w>": 8106,
    " treated</w>": 8107,
    "cop": 8108,
    " secured</w>": 8109,
    "osa</w>": 8110,
    "ennis</w>": 8111,
    " rich</w>": 8112,
    "fri": 8113,
    " lane</w>": 8114,
    " Albums</w>": 8115,
    "<</w>": 8116,
    " Baltimore</w>": 8117,
    "species</w>": 8118,
    " Manhatt": 8119,
    " Robert": 8120,
    " skyscra": 8121,
    " Building</w>": 8122,
    " birth": 8123,
    " informed</w>": 8124,
    " gone</w>": 8125,
    " visitors</w>": 8126,
    " san": 8127,
    " Nash</w>": 8128,
    "entage</w>": 8129,
    "rid": 8130,
    " Gold</w>": 8131,
    " veget": 8132,
    " spok": 8133,
    " 99</w>": 8134,
    " references</w>": 8135,
    " Ast": 8136,
    "ller</w>": 8137,
    " dollars</w>": 8138,
    " agricultural</w>": 8139,
    " ca": 8140,
    " Han": 8141,
    " Is</w>": 8142,
    " master</w>": 8143,
    " Louis": 8144,
    "time</w>": 8145,
    " tick": 8146,
    " weak</w>": 8147,
    "ori</w>": 8148,
    " Manhattan</w>": 8149,
    "acon</w>": 8150,
    "nh</w>": 8151,
    "22</w>": 8152,
    " 1880</w>": 8153,
    " aged</w>": 8154,
    " withdrew</w>": 8155,
    " Organ": 8156,
    " Vice</w>": 8157,
    " terr": 8158,
    " reserve</w>": 8159,
    " Offic": 8160,
    "ramid</w>": 8161,
    " roots</w>": 8162,
    " surviv": 8163,
    "liamentary</w>": 8164,
    " 58</w>": 8165,
    " condem": 8166,
    "kel": 8167,
    "alions</w>": 8168,
    " Kansas</w>": 8169,
    "artney</w>": 8170,
    " deleg": 8171,
    " Earl</w>": 8172,
    " broad</w>": 8173,
    "irt</w>": 8174,
    " differences</w>": 8175,
    " Delaware</w>": 8176,
    " medium</w>": 8177,
    " whereas</w>": 8178,
    " linked</w>": 8179,
    "uments</w>": 8180,
    " dog</w>": 8181,
    " farm</w>": 8182,
    " standards</w>": 8183,
    " movements</w>": 8184,
    "uce</w>": 8185,
    " difference</w>": 8186,
    " flow</w>": 8187,
    " pay": 8188,
    " unn": 8189,
    " foundation</w>": 8190,
    " Mort": 8191,
    " Stewart</w>": 8192,
    " subspecies</w>": 8193,
    " Galveston</w>": 8194,
    " fire": 8195,
    "je</w>": 8196,
    " NFL</w>": 8197,
    " nations</w>": 8198,
    " civilian</w>": 8199,
    " paintings</w>": 8200,
    " Phoenix</w>": 8201,
    " representative</w>": 8202,
    " preserved</w>": 8203,
    " Bi": 8204,
    " CD</w>": 8205,
    " Tig": 8206,
    " fear</w>": 8207,
    " driven</w>": 8208,
    " asc": 8209,
    " indicate</w>": 8210,
    " encountered</w>": 8211,
    " protagonist</w>": 8212,
    "terly</w>": 8213,
    " Anthony</w>": 8214,
    " De</w>": 8215,
    " defended</w>": 8216,
    " vig": 8217,
    " skull</w>": 8218,
    "jo</w>": 8219,
    "utional</w>": 8220,
    "03</w>": 8221,
    " Naval</w>": 8222,
    " Madonna</w>": 8223,
    " Bonds</w>": 8224,
    " PC</w>": 8225,
    "ecraft</w>": 8226,
    " Rihanna</w>": 8227,
    " tone</w>": 8228,
    " chemical</w>": 8229,
    " vic": 8230,
    "etings</w>": 8231,
    " Bab": 8232,
    " 77</w>": 8233,
    " Research</w>": 8234,
    "opping</w>": 8235,
    " roof</w>": 8236,
    " Power</w>": 8237,
    " displ": 8238,
    " happy</w>": 8239,
    " characteristics</w>": 8240,
    " absor": 8241,
    "scape</w>": 8242,
    " counter</w>": 8243,
    " dollar</w>": 8244,
    "ulties</w>": 8245,
    "lor": 8246,
    " Throughout</w>": 8247,
    " comments</w>": 8248,
    " speak</w>": 8249,
    " Journal</w>": 8250,
    " prol": 8251,
    " sale</w>": 8252,
    " Kat": 8253,
    " colour</w>": 8254,
    " characterized</w>": 8255,
    " breed</w>": 8256,
    " Nob": 8257,
    " supposed</w>": 8258,
    " Lincoln</w>": 8259,
    " collaboration</w>": 8260,
    " interesting</w>": 8261,
    " compete</w>": 8262,
    "emented</w>": 8263,
    " impossible</w>": 8264,
    "teenth</w>": 8265,
    " Ed</w>": 8266,
    " non": 8267,
    "lling</w>": 8268,
    " concern</w>": 8269,
    " 1913</w>": 8270,
    " Alabama</w>": 8271,
    " opponents</w>": 8272,
    " inhabitants</w>": 8273,
    " Albert</w>": 8274,
    " ABC</w>": 8275,
    "str": 8276,
    " adventure</w>": 8277,
    " corner</w>": 8278,
    " audio</w>": 8279,
    " Law</w>": 8280,
    " Seat": 8281,
    " Within</w>": 8282,
    "ampton</w>": 8283,
    " Domitian</w>": 8284,
    " Territ": 8285,
    " attend</w>": 8286,
    " reproduc": 8287,
    " recognised</w>": 8288,
    " Palace</w>": 8289,
    "alization</w>": 8290,
    "alo</w>": 8291,
    " credit</w>": 8292,
    " scheme</w>": 8293,
    " criticised</w>": 8294,
    " resigned</w>": 8295,
    "uma</w>": 8296,
    "osure</w>": 8297,
    "immy</w>": 8298,
    " category</w>": 8299,
    " Buddh": 8300,
    " ham": 8301,
    "35</w>": 8302,
    " thereafter</w>": 8303,
    "Despite</w>": 8304,
    " dispute</w>": 8305,
    " offense</w>": 8306,
    " Go</w>": 8307,
    " lies</w>": 8308,
    " jazz</w>": 8309,
    " tries</w>": 8310,
    " torn": 8311,
    " Lawrence</w>": 8312,
    " code</w>": 8313,
    " Clar": 8314,
    " formal</w>": 8315,
    " conclusion</w>": 8316,
    " displayed</w>": 8317,
    " churches</w>": 8318,
    " painted</w>": 8319,
    " poor": 8320,
    " magic</w>": 8321,
    " ranking</w>": 8322,
    " retirement</w>": 8323,
    " hot</w>": 8324,
    " collaps": 8325,
    "rich</w>": 8326,
    " Acc": 8327,
    " grade</w>": 8328,
    " classical</w>": 8329,
    " Guardian</w>": 8330,
    "where</w>": 8331,
    "otus</w>": 8332,
    " sympath": 8333,
    " volc": 8334,
    " Middles": 8335,
    " bridges</w>": 8336,
    " McCartney</w>": 8337,
    " custom": 8338,
    " Mississ": 8339,
    " functions</w>": 8340,
    " purposes</w>": 8341,
    " 1911</w>": 8342,
    " cost": 8343,
    " victories</w>": 8344,
    "000</w>": 8345,
    " everyone</w>": 8346,
    " solid</w>": 8347,
    " pushed</w>": 8348,
    " 900</w>": 8349,
    " Ran": 8350,
    " rescue</w>": 8351,
    " Pop": 8352,
    "ader</w>": 8353,
    " firing</w>": 8354,
    " Init": 8355,
    " courts</w>": 8356,
    " afterwards</w>": 8357,
    " Area</w>": 8358,
    "rants</w>": 8359,
    " kingdom</w>": 8360,
    " Bowie</w>": 8361,
    " 61</w>": 8362,
    " Pi": 8363,
    "mar</w>": 8364,
    "omic</w>": 8365,
    "amy</w>": 8366,
    " engineer</w>": 8367,
    "rs</w>": 8368,
    " Trip": 8369,
    " toll</w>": 8370,
    " page</w>": 8371,
    " partially</w>": 8372,
    "ubb": 8373,
    " exh": 8374,
    " teaching</w>": 8375,
    " Simon</w>": 8376,
    "eff</w>": 8377,
    " huge</w>": 8378,
    "idents</w>": 8379,
    " rej": 8380,
    " generated</w>": 8381,
    "08</w>": 8382,
    " weigh": 8383,
    " ball": 8384,
    " stead": 8385,
    " 1921</w>": 8386,
    " scholars</w>": 8387,
    " earth</w>": 8388,
    " learning</w>": 8389,
    "ationally</w>": 8390,
    "oked</w>": 8391,
    " notably</w>": 8392,
    " limit</w>": 8393,
    " submarine</w>": 8394,
    "ista</w>": 8395,
    " Tit": 8396,
    " Ku": 8397,
    " personality</w>": 8398,
    "reh": 8399,
    " flew</w>": 8400,
    " tor": 8401,
    " union</w>": 8402,
    " measures</w>": 8403,
    " Wild": 8404,
    "udes</w>": 8405,
    "lades</w>": 8406,
    " Switz": 8407,
    " threw</w>": 8408,
    "oli</w>": 8409,
    " scand": 8410,
    " habitat</w>": 8411,
    " reportedly</w>": 8412,
    " Thi</w>": 8413,
    "irman</w>": 8414,
    "zema</w>": 8415,
    " persp": 8416,
    " fantasy</w>": 8417,
    " possession</w>": 8418,
    " substantial</w>": 8419,
    "aments</w>": 8420,
    "emen</w>": 8421,
    " warm</w>": 8422,
    "eor": 8423,
    " violent</w>": 8424,
    " Cris": 8425,
    " instance</w>": 8426,
    " truth</w>": 8427,
    "rupted</w>": 8428,
    "oth</w>": 8429,
    " examples</w>": 8430,
    "inner</w>": 8431,
    "axy</w>": 8432,
    "leton</w>": 8433,
    " block</w>": 8434,
    " Seattle</w>": 8435,
    " broadc": 8436,
    " road": 8437,
    " Rhodesia</w>": 8438,
    " Guy</w>": 8439,
    " ×": 8440,
    " ×</w>": 8441,
    " Herg</w>": 8442,
    " Kentucky</w>": 8443,
    " divor": 8444,
    " overt": 8445,
    " represents</w>": 8446,
    " delayed</w>": 8447,
    " percentage</w>": 8448,
    " departed</w>": 8449,
    "rett</w>": 8450,
    " observations</w>": 8451,
    " modified</w>": 8452,
    " rhyth": 8453,
    " Ral": 8454,
    " deployed</w>": 8455,
    " remin": 8456,
    " divisions</w>": 8457,
    " elab": 8458,
    "layer</w>": 8459,
    "usi": 8460,
    " absence</w>": 8461,
    " expensive</w>": 8462,
    " strategy</w>": 8463,
    " facility</w>": 8464,
    "ewer</w>": 8465,
    " sear": 8466,
    " teen": 8467,
    " criminal</w>": 8468,
    " junior</w>": 8469,
    " territories</w>": 8470,
    " Norman</w>": 8471,
    " designation</w>": 8472,
    " Switzerland</w>": 8473,
    " convent": 8474,
    " Lau": 8475,
    " <</w>": 8476,
    " mush": 8477,
    " Missoula</w>": 8478,
    " Tok": 8479,
    "enb": 8480,
    " influences</w>": 8481,
    "erine</w>": 8482,
    " ray</w>": 8483,
    "tic</w>": 8484,
    " Jup": 8485,
    "enses</w>": 8486,
    " duo</w>": 8487,
    " Bang": 8488,
    " superior</w>": 8489,
    " attempting</w>": 8490,
    " handed</w>": 8491,
    "fort</w>": 8492,
    " 160</w>": 8493,
    " Dal": 8494,
    " forming</w>": 8495,
    "zen</w>": 8496,
    " density</w>": 8497,
    " elections</w>": 8498,
    "olt</w>": 8499,
    "ounced</w>": 8500,
    "illo</w>": 8501,
    " unsuccessful</w>": 8502,
    " show": 8503,
    " Radi": 8504,
    " Bron": 8505,
    " phr": 8506,
    " genetic</w>": 8507,
    " Fantasy</w>": 8508,
    " Argentina</w>": 8509,
    " Bull</w>": 8510,
    "cton</w>": 8511,
    " models</w>": 8512,
    " arriving</w>": 8513,
    " cris": 8514,
    " meetings</w>": 8515,
    " Guard</w>": 8516,
    " freedom</w>": 8517,
    " pattern</w>": 8518,
    " shore</w>": 8519,
    " draf": 8520,
    " rooms</w>": 8521,
    "aft</w>": 8522,
    " Ther": 8523,
    " describe</w>": 8524,
    " mention</w>": 8525,
    " seem</w>": 8526,
    " employees</w>": 8527,
    " incomp": 8528,
    " cruiser</w>": 8529,
    " Type</w>": 8530,
    " Tru": 8531,
    " Mitch": 8532,
    "amin</w>": 8533,
    " photograph": 8534,
    "riors</w>": 8535,
    " Davies</w>": 8536,
    " Santa</w>": 8537,
    "iggest</w>": 8538,
    " reh": 8539,
    "eds</w>": 8540,
    "aford</w>": 8541,
    "zodiazepines</w>": 8542,
    " composer</w>": 8543,
    " inaug": 8544,
    " documents</w>": 8545,
    "othy</w>": 8546,
    " glass</w>": 8547,
    " Guin": 8548,
    " Hun": 8549,
    " assisted</w>": 8550,
    "zer</w>": 8551,
    " water": 8552,
    " 59</w>": 8553,
    "iveness</w>": 8554,
    " Supp": 8555,
    "apy</w>": 8556,
    " battleship</w>": 8557,
    "ectives</w>": 8558,
    " vul": 8559,
    " util": 8560,
    " Hann": 8561,
    "down</w>": 8562,
    " 1870</w>": 8563,
    " documentary</w>": 8564,
    " repeated</w>": 8565,
    " RAF</w>": 8566,
    " Glob": 8567,
    "ollo</w>": 8568,
    " valley</w>": 8569,
    "una</w>": 8570,
    " degrees</w>": 8571,
    " beach</w>": 8572,
    " Nicole</w>": 8573,
    " Smart</w>": 8574,
    " tack": 8575,
    " DC</w>": 8576,
    "OK</w>": 8577,
    " Fowler</w>": 8578,
    " Ra": 8579,
    "sen": 8580,
    "rel</w>": 8581,
    " emergency</w>": 8582,
    " Confeder": 8583,
    "eable</w>": 8584,
    " om": 8585,
    " wings</w>": 8586,
    " Forces</w>": 8587,
    " refers</w>": 8588,
    " publicly</w>": 8589,
    " deliber": 8590,
    "uscrip": 8591,
    " 88</w>": 8592,
    " Kim</w>": 8593,
    " wedding</w>": 8594,
    " housing</w>": 8595,
    " ex</w>": 8596,
    " assist</w>": 8597,
    " Staff</w>": 8598,
    " prime</w>": 8599,
    " cart": 8600,
    " footage</w>": 8601,
    " 1900</w>": 8602,
    " collapse</w>": 8603,
    "ko</w>": 8604,
    " Houston</w>": 8605,
    " 63</w>": 8606,
    "enous</w>": 8607,
    " Kent</w>": 8608,
    " Gilchrist</w>": 8609,
    " Special</w>": 8610,
    " appropri": 8611,
    "rising</w>": 8612,
    " Loo": 8613,
    " commem": 8614,
    " fund": 8615,
    " partner</w>": 8616,
    " 1924</w>": 8617,
    " Ep": 8618,
    " Queens": 8619,
    " understanding</w>": 8620,
    " thousand</w>": 8621,
    " upgraded</w>": 8622,
    "eered</w>": 8623,
    " Phil</w>": 8624,
    "acle</w>": 8625,
    " guil": 8626,
    "icide</w>": 8627,
    "tures</w>": 8628,
    " Treaty</w>": 8629,
    " chairman</w>": 8630,
    " difficulties</w>": 8631,
    "ido</w>": 8632,
    "alia</w>": 8633,
    " Down</w>": 8634,
    " 69</w>": 8635,
    " Further</w>": 8636,
    " Brun": 8637,
    "eming</w>": 8638,
    " hur": 8639,
    " baby</w>": 8640,
    " Bosn": 8641,
    " Nan": 8642,
    " pipeline</w>": 8643,
    " Butler</w>": 8644,
    " price</w>": 8645,
    " spirit</w>": 8646,
    "ivated</w>": 8647,
    " 1929</w>": 8648,
    " charter</w>": 8649,
    "tral</w>": 8650,
    " controversial</w>": 8651,
    " enh": 8652,
    " sequences</w>": 8653,
    " Jesus</w>": 8654,
    " aware</w>": 8655,
    " 86</w>": 8656,
    " pounds</w>": 8657,
    " trials</w>": 8658,
    " easy</w>": 8659,
    " crews</w>": 8660,
    " architecture</w>": 8661,
    " Miles</w>": 8662,
    " facing</w>": 8663,
    "rect": 8664,
    " 81</w>": 8665,
    " reconnaissance</w>": 8666,
    " column</w>": 8667,
    " premiere</w>": 8668,
    " honour</w>": 8669,
    " sing</w>": 8670,
    " driver</w>": 8671,
    " Mosley</w>": 8672,
    "eus</w>": 8673,
    "cl": 8674,
    "onnet</w>": 8675,
    " Shirley</w>": 8676,
    " neptunium</w>": 8677,
    " forg": 8678,
    "ede</w>": 8679,
    " lose</w>": 8680,
    " synthes": 8681,
    "aki</w>": 8682,
    "ongst</w>": 8683,
    "equently</w>": 8684,
    " key": 8685,
    " Can</w>": 8686,
    " defend</w>": 8687,
    " initi": 8688,
    " acknowled": 8689,
    " extreme</w>": 8690,
    " prosper": 8691,
    " Ariz": 8692,
    " Auth": 8693,
    " folk</w>": 8694,
    " bet": 8695,
    "IA</w>": 8696,
    " fast": 8697,
    " fresh</w>": 8698,
    " Dou": 8699,
    " virus</w>": 8700,
    " Internet</w>": 8701,
    " wood": 8702,
    " Water": 8703,
    " biggest</w>": 8704,
    " Nich": 8705,
    "05</w>": 8706,
    " climate</w>": 8707,
    " Doctor</w>": 8708,
    " Norweg": 8709,
    " Lanc": 8710,
    " cooper": 8711,
    " detail</w>": 8712,
    " rif": 8713,
    "rows</w>": 8714,
    "sburgh</w>": 8715,
    "come</w>": 8716,
    " manuscrip": 8717,
    " enters</w>": 8718,
    " ranging</w>": 8719,
    " Al</w>": 8720,
    " 79</w>": 8721,
    "rage</w>": 8722,
    " divers": 8723,
    " distinguished</w>": 8724,
    "acc": 8725,
    " picture</w>": 8726,
    " tribute</w>": 8727,
    " constant</w>": 8728,
    " bord": 8729,
    " Police</w>": 8730,
    " moments</w>": 8731,
    " crash</w>": 8732,
    "uese</w>": 8733,
    "obi": 8734,
    " Express</w>": 8735,
    " cool": 8736,
    " dynasty</w>": 8737,
    " arrangement</w>": 8738,
    " mayor</w>": 8739,
    " tests</w>": 8740,
    " Interstate</w>": 8741,
    " videos</w>": 8742,
    " Yeats</w>": 8743,
    " typhoon</w>": 8744,
    "laire</w>": 8745,
    " Lody</w>": 8746,
    " Media</w>": 8747,
    " option</w>": 8748,
    "actor</w>": 8749,
    " NHL</w>": 8750,
    " Unlike</w>": 8751,
    " unlike</w>": 8752,
    " Jupiter</w>": 8753,
    " engineering</w>": 8754,
    "encing</w>": 8755,
    " throne</w>": 8756,
    " circumstances</w>": 8757,
    " abund": 8758,
    " Arizona</w>": 8759,
    " trained</w>": 8760,
    " rates</w>": 8761,
    "pole</w>": 8762,
    " salv": 8763,
    " judge</w>": 8764,
    " obl": 8765,
    " global</w>": 8766,
    " scientists</w>": 8767,
    "lete</w>": 8768,
    " consol": 8769,
    " unre": 8770,
    " Niel": 8771,
    " Vinc": 8772,
    "oft</w>": 8773,
    "allen</w>": 8774,
    " exit</w>": 8775,
    " situated</w>": 8776,
    "hm": 8777,
    "odon</w>": 8778,
    " tunnel</w>": 8779,
    " ride</w>": 8780,
    " Sudirman</w>": 8781,
    " deemed</w>": 8782,
    " aftern": 8783,
    " Kelly</w>": 8784,
    " excell": 8785,
    "uable</w>": 8786,
    " historic</w>": 8787,
    " residence</w>": 8788,
    " consc": 8789,
    " Out</w>": 8790,
    " affili": 8791,
    "mon": 8792,
    " intention</w>": 8793,
    "arp": 8794,
    " Francis</w>": 8795,
    " Buff": 8796,
    " Hungarian</w>": 8797,
    " Anc": 8798,
    " rounds</w>": 8799,
    " withdrawal</w>": 8800,
    " Hard": 8801,
    " drum</w>": 8802,
    "ternal</w>": 8803,
    "going</w>": 8804,
    " Anton": 8805,
    " simultan": 8806,
    " nickn": 8807,
    " Towns": 8808,
    " USA</w>": 8809,
    " orbit</w>": 8810,
    "etics</w>": 8811,
    " bound</w>": 8812,
    "inals</w>": 8813,
    " Utah</w>": 8814,
    " resumed</w>": 8815,
    "owa</w>": 8816,
    " Techn": 8817,
    " vehicle</w>": 8818,
    " radar</w>": 8819,
    "akota</w>": 8820,
    " Amb": 8821,
    " poll": 8822,
    " Brazil</w>": 8823,
    " cathedral</w>": 8824,
    " weapon</w>": 8825,
    " happened</w>": 8826,
    " adaptation</w>": 8827,
    " Library</w>": 8828,
    "aired</w>": 8829,
    " releases</w>": 8830,
    " Family</w>": 8831,
    " favorite</w>": 8832,
    " suggesting</w>": 8833,
    " towers</w>": 8834,
    " memor": 8835,
    "orship</w>": 8836,
    "eptions</w>": 8837,
    " colors</w>": 8838,
    " exception</w>": 8839,
    "viation</w>": 8840,
    " Mic": 8841,
    " prohib": 8842,
    " alle": 8843,
    "etime</w>": 8844,
    " beautiful</w>": 8845,
    " application</w>": 8846,
    " regime</w>": 8847,
    " Portuguese</w>": 8848,
    "02</w>": 8849,
    " founder</w>": 8850,
    " walk</w>": 8851,
    " Stef": 8852,
    " mine</w>": 8853,
    " Rangers</w>": 8854,
    " coug": 8855,
    "aur</w>": 8856,
    " Pear": 8857,
    "49</w>": 8858,
    "eans</w>": 8859,
    " week": 8860,
    "iden</w>": 8861,
    "agasc": 8862,
    " Wic": 8863,
    " shift</w>": 8864,
    " dang": 8865,
    " Marc": 8866,
    " Now</w>": 8867,
    " Last</w>": 8868,
    " telling</w>": 8869,
    " Pitt": 8870,
    " ceremon": 8871,
    " minimum</w>": 8872,
    " cruisers</w>": 8873,
    "teries</w>": 8874,
    " restricted</w>": 8875,
    "ertain</w>": 8876,
    "emet": 8877,
    " sector</w>": 8878,
    "opl": 8879,
    "icop": 8880,
    " powered</w>": 8881,
    " Sports</w>": 8882,
    "orth</w>": 8883,
    " enthusi": 8884,
    " liber": 8885,
    "eat</w>": 8886,
    " reactions</w>": 8887,
    " stran": 8888,
    " falls</w>": 8889,
    " liked</w>": 8890,
    " measured</w>": 8891,
    " Morgan</w>": 8892,
    "ropolitan</w>": 8893,
    " brand</w>": 8894,
    " Winter</w>": 8895,
    " wrong</w>": 8896,
    " asks</w>": 8897,
    "lavery</w>": 8898,
    " storms</w>": 8899,
    " Dan</w>": 8900,
    " spacecraft</w>": 8901,
    " condoms</w>": 8902,
    " Leno</w>": 8903,
    " learn</w>": 8904,
    "we</w>": 8905,
    " depos": 8906,
    "arant": 8907,
    " Reb": 8908,
    " artistic</w>": 8909,
    " young": 8910,
    "allow</w>": 8911,
    " ori": 8912,
    " landed</w>": 8913,
    " en</w>": 8914,
    " languages</w>": 8915,
    " overc": 8916,
    " Inn": 8917,
    " Austri": 8918,
    " bones</w>": 8919,
    " teacher</w>": 8920,
    " sacrif": 8921,
    "eria</w>": 8922,
    " severely</w>": 8923,
    " coins</w>": 8924,
    " Veronica</w>": 8925,
    " Jess": 8926,
    " eight": 8927,
    "AR": 8928,
    "33</w>": 8929,
    " rebuilt</w>": 8930,
    " advis": 8931,
    " extrat": 8932,
    "aya</w>": 8933,
    "enberg</w>": 8934,
    " Nas</w>": 8935,
    " multi</w>": 8936,
    " iron": 8937,
    " sover": 8938,
    " 1925</w>": 8939,
    " factors</w>": 8940,
    " signing</w>": 8941,
    "uda</w>": 8942,
    " Khan</w>": 8943,
    " gets</w>": 8944,
    " coverage</w>": 8945,
    "az</w>": 8946,
    " styles</w>": 8947,
    " Matt</w>": 8948,
    " thinking</w>": 8949,
    " formerly</w>": 8950,
    "eby</w>": 8951,
    " bearing</w>": 8952,
    " distinctive</w>": 8953,
    " Eagle</w>": 8954,
    "smen</w>": 8955,
    "evo</w>": 8956,
    " elsewhere</w>": 8957,
    " Benn": 8958,
    " Nes": 8959,
    "yson</w>": 8960,
    " pump": 8961,
    "arch</w>": 8962,
    "etary</w>": 8963,
    " add</w>": 8964,
    " Norwegian</w>": 8965,
    " Madagasc": 8966,
    "aba</w>": 8967,
    " Federal</w>": 8968,
    " quick</w>": 8969,
    " 1923</w>": 8970,
    " submitted</w>": 8971,
    " 1926</w>": 8972,
    " Georgia</w>": 8973,
    " affair</w>": 8974,
    " flag": 8975,
    " ethn": 8976,
    "father</w>": 8977,
    "esha</w>": 8978,
    " raid</w>": 8979,
    " phen": 8980,
    " Dyn": 8981,
    " Horn": 8982,
    " evil</w>": 8983,
    "arities</w>": 8984,
    " turb": 8985,
    " hors": 8986,
    " negotiations</w>": 8987,
    " Nevertheless</w>": 8988,
    " jump": 8989,
    " Front</w>": 8990,
    " Trans": 8991,
    " Grammy</w>": 8992,
    "dits</w>": 8993,
    "friend</w>": 8994,
    "pson</w>": 8995,
    " conduct</w>": 8996,
    " Sox</w>": 8997,
    " Nielsen</w>": 8998,
    " belt</w>": 8999,
    "euv": 9000,
    " stable</w>": 9001,
    " intensified</w>": 9002,
    "OC</w>": 9003,
    " nur": 9004,
    " plasma</w>": 9005,
    "07</w>": 9006,
    " Dubl": 9007,
    "thes</w>": 9008,
    " ech": 9009,
    " Ak": 9010,
    " Mississipp": 9011,
    " sufficient</w>": 9012,
    " Frederick</w>": 9013,
    "ildren</w>": 9014,
    "eeding</w>": 9015,
    " faces</w>": 9016,
    " prosp": 9017,
    " struggle</w>": 9018,
    " coinc": 9019,
    "iler</w>": 9020,
    " fresh": 9021,
    " 74</w>": 9022,
    " hearing</w>": 9023,
    "eak</w>": 9024,
    " feath": 9025,
    " Part": 9026,
    "aron</w>": 9027,
    "PA</w>": 9028,
    "oulder</w>": 9029,
    " cyclones</w>": 9030,
    "tware</w>": 9031,
    "ategory</w>": 9032,
    " Morrison</w>": 9033,
    " Dw": 9034,
    "ele</w>": 9035,
    "uff</w>": 9036,
    " Giants</w>": 9037,
    " Thund": 9038,
    " Herz": 9039,
    " Busch</w>": 9040,
    " Connor</w>": 9041,
    " Roseb": 9042,
    "berforce</w>": 9043,
    "usted</w>": 9044,
    " Christ</w>": 9045,
    "umn</w>": 9046,
    "ateur</w>": 9047,
    " 1928</w>": 9048,
    " girls</w>": 9049,
    " seek</w>": 9050,
    " NC": 9051,
    " 71</w>": 9052,
    " Fla": 9053,
    " Tony</w>": 9054,
    " advice</w>": 9055,
    " myth": 9056,
    "86</w>": 9057,
    " feels</w>": 9058,
    " destroyers</w>": 9059,
    "66</w>": 9060,
    " impris": 9061,
    "unch</w>": 9062,
    " Baby</w>": 9063,
    " Jane</w>": 9064,
    "gh": 9065,
    "Some</w>": 9066,
    " creative</w>": 9067,
    "umber</w>": 9068,
    " publisher</w>": 9069,
    " Cardiff</w>": 9070,
    " 68</w>": 9071,
    " Belgium</w>": 9072,
    " convection</w>": 9073,
    " Sand": 9074,
    " fifteen</w>": 9075,
    " Swiss</w>": 9076,
    "oba</w>": 9077,
    " professor</w>": 9078,
    " Attorney</w>": 9079,
    " Profess": 9080,
    " Erie</w>": 9081,
    " Diego</w>": 9082,
    "ilian</w>": 9083,
    "mun": 9084,
    " fifty</w>": 9085,
    " Pra": 9086,
    " pin": 9087,
    " frame</w>": 9088,
    " Stanley</w>": 9089,
    " court": 9090,
    " occupation</w>": 9091,
    " Pul": 9092,
    " Kapoor</w>": 9093,
    " spending</w>": 9094,
    " Centre</w>": 9095,
    " accept": 9096,
    " periods</w>": 9097,
    " conj": 9098,
    " Then</w>": 9099,
    " Lind": 9100,
    " Crown</w>": 9101,
    " cous": 9102,
    " hydrogen</w>": 9103,
    " vice</w>": 9104,
    " Pur": 9105,
    " covering</w>": 9106,
    " sun": 9107,
    " Category</w>": 9108,
    " prisoners</w>": 9109,
    "rit</w>": 9110,
    "apo</w>": 9111,
    " Wilhelm</w>": 9112,
    " Late</w>": 9113,
    " Indians</w>": 9114,
    " Sus": 9115,
    " Hok": 9116,
    "loyd</w>": 9117,
    "yss": 9118,
    " fishing</w>": 9119,
    " Alg": 9120,
    " champion</w>": 9121,
    " Mrs</w>": 9122,
    "sters</w>": 9123,
    "mium</w>": 9124,
    " stadium</w>": 9125,
    " friendly</w>": 9126,
    " Sleaford</w>": 9127,
    " Benzema</w>": 9128,
    " send</w>": 9129,
    " removal</w>": 9130,
    "egra": 9131,
    " outp": 9132,
    " afternoon</w>": 9133,
    "oks</w>": 9134,
    " shell</w>": 9135,
    " 1908</w>": 9136,
    " Seven</w>": 9137,
    " teamm": 9138,
    " 73</w>": 9139,
    " sun</w>": 9140,
    " vertical</w>": 9141,
    " hosp": 9142,
    "orer</w>": 9143,
    " 98</w>": 9144,
    " sunk</w>": 9145,
    " lay</w>": 9146,
    " sph": 9147,
    " symbol</w>": 9148,
    " useful</w>": 9149,
    "elli</w>": 9150,
    "ureau</w>": 9151,
    "37</w>": 9152,
    " promised</w>": 9153,
    " shipping</w>": 9154,
    "okes</w>": 9155,
    "ywhere</w>": 9156,
    " explains</w>": 9157,
    "aden</w>": 9158,
    " territorial</w>": 9159,
    " pig": 9160,
    "nings</w>": 9161,
    " kick</w>": 9162,
    " tie</w>": 9163,
    "egov": 9164,
    "iblical</w>": 9165,
    " Madagascar</w>": 9166,
    " Greeley</w>": 9167,
    " grown</w>": 9168,
    " tanks</w>": 9169,
    " delivery</w>": 9170,
    " extent</w>": 9171,
    " childhood</w>": 9172,
    " subjects</w>": 9173,
    "rophy</w>": 9174,
    " protest</w>": 9175,
    "onto</w>": 9176,
    " load</w>": 9177,
    "azines</w>": 9178,
    " spend</w>": 9179,
    " understand</w>": 9180,
    " soul</w>": 9181,
    " dominant</w>": 9182,
    " pure</w>": 9183,
    "osity</w>": 9184,
    " joint</w>": 9185,
    " colleagues</w>": 9186,
    " Mint</w>": 9187,
    " Repres": 9188,
    " anticip": 9189,
[...]
